{
  "version": "1.0",
  "truncation": null,
  "padding": null,
  "added_tokens": [
    {
      "id": 0,
      "content": "[PAD]",
      "single_word": false,
      "lstrip": false,
      "rstrip": false,
      "normalized": false,
      "special": true
    },
    {
      "id": 1,
      "content": "[UNK]",
      "single_word": false,
      "lstrip": false,
      "rstrip": false,
      "normalized": false,
      "special": true
    }
  ],
  "normalizer": null,
  "pre_tokenizer": {
    "type": "Whitespace"
  },
  "post_processor": null,
  "decoder": null,
  "model": {
    "type": "BPE",
    "dropout": null,
    "unk_token": "[UNK]",
    "continuing_subword_prefix": null,
    "end_of_word_suffix": null,
    "fuse_unk": false,
    "byte_fallback": false,
    "ignore_merges": false,
    "vocab": {
      "[PAD]": 0,
      "[UNK]": 1,
      "!": 2,
      "\"": 3,
      "#": 4,
      "$": 5,
      "%": 6,
      "&": 7,
      "'": 8,
      "(": 9,
      ")": 10,
      "*": 11,
      "+": 12,
      ",": 13,
      "-": 14,
      ".": 15,
      "/": 16,
      "0": 17,
      "1": 18,
      "2": 19,
      "3": 20,
      "4": 21,
      "5": 22,
      "6": 23,
      "7": 24,
      "8": 25,
      "9": 26,
      ":": 27,
      ";": 28,
      "<": 29,
      "=": 30,
      ">": 31,
      "?": 32,
      "@": 33,
      "A": 34,
      "B": 35,
      "C": 36,
      "D": 37,
      "E": 38,
      "F": 39,
      "G": 40,
      "H": 41,
      "I": 42,
      "J": 43,
      "K": 44,
      "L": 45,
      "M": 46,
      "N": 47,
      "O": 48,
      "P": 49,
      "Q": 50,
      "R": 51,
      "S": 52,
      "T": 53,
      "U": 54,
      "V": 55,
      "W": 56,
      "X": 57,
      "Y": 58,
      "Z": 59,
      "[": 60,
      "]": 61,
      "^": 62,
      "_": 63,
      "`": 64,
      "a": 65,
      "b": 66,
      "c": 67,
      "d": 68,
      "e": 69,
      "f": 70,
      "g": 71,
      "h": 72,
      "i": 73,
      "j": 74,
      "k": 75,
      "l": 76,
      "m": 77,
      "n": 78,
      "o": 79,
      "p": 80,
      "q": 81,
      "r": 82,
      "s": 83,
      "t": 84,
      "u": 85,
      "v": 86,
      "w": 87,
      "x": 88,
      "y": 89,
      "z": 90,
      "{": 91,
      "}": 92,
      "~": 93,
      "§": 94,
      "±": 95,
      "²": 96,
      "·": 97,
      "¹": 98,
      "×": 99,
      "á": 100,
      "é": 101,
      "ö": 102,
      "ā": 103,
      "α": 104,
      "β": 105,
      "γ": 106,
      "ε": 107,
      "ζ": 108,
      "λ": 109,
      "ρ": 110,
      "τ": 111,
      "φ": 112,
      "–": 113,
      "—": 114,
      "⁰": 115,
      "₁": 116,
      "₂": 117,
      "₅": 118,
      "→": 119,
      "↔": 120,
      "∝": 121,
      "∞": 122,
      "≈": 123,
      "≠": 124,
      "≥": 125,
      "✓": 126,
      "️": 127,
      "🌀": 128,
      "🌊": 129,
      "🌐": 130,
      "🌱": 131,
      "🌿": 132,
      "🎨": 133,
      "🏛": 134,
      "🏢": 135,
      "🐚": 136,
      "💌": 137,
      "📄": 138,
      "📊": 139,
      "📋": 140,
      "📚": 141,
      "📝": 142,
      "📡": 143,
      "🔒": 144,
      "🔥": 145,
      "🔧": 146,
      "🔬": 147,
      "🔭": 148,
      "🦀": 149,
      "🧠": 150,
      "🧹": 151,
      "at": 152,
      "in": 153,
      "er": 154,
      "en": 155,
      "on": 156,
      "st": 157,
      "re": 158,
      "om": 159,
      "it": 160,
      "ch": 161,
      "or": 162,
      "le": 163,
      "an": 164,
      "ion": 165,
      "com": 166,
      "al": 167,
      "ar": 168,
      "to": 169,
      "ent": 170,
      "de": 171,
      "se": 172,
      "ro": 173,
      "he": 174,
      "ct": 175,
      "fi": 176,
      "ing": 177,
      "us": 178,
      "(#": 179,
      "au": 180,
      "es": 181,
      "ri": 182,
      "ation": 183,
      "stat": 184,
      "ed": 185,
      "oc": 186,
      "ad": 187,
      "status": 188,
      "ge": 189,
      "be": 190,
      "ment": 191,
      "ra": 192,
      "is": 193,
      "):": 194,
      "fe": 195,
      "te": 196,
      "mit": 197,
      "and": 198,
      "feat": 199,
      "et": 200,
      "ate": 201,
      "ach": 202,
      "fix": 203,
      "ap": 204,
      "ic": 205,
      "ve": 206,
      "auto": 207,
      "for": 208,
      "commit": 209,
      "up": 210,
      "ol": 211,
      "doc": 212,
      "comb": 213,
      "beach": 214,
      "beachcomb": 215,
      "con": 216,
      "ce": 217,
      "il": 218,
      "as": 219,
      "the": 220,
      "ig": 221,
      "un": 222,
      "ag": 223,
      "lo": 224,
      "mo": 225,
      "ver": 226,
      "bu": 227,
      "pro": 228,
      "leet": 229,
      "th": 230,
      "ex": 231,
      "docs": 232,
      "add": 233,
      "im": 234,
      "co": 235,
      "ck": 236,
      "po": 237,
      "rich": 238,
      "enrich": 239,
      "enrichment": 240,
      "pl": 241,
      "arch": 242,
      "fleet": 243,
      "bo": 244,
      "wor": 245,
      "ction": 246,
      "int": 247,
      "no": 248,
      "ut": 249,
      "AT": 250,
      "am": 251,
      "ru": 252,
      "ith": 253,
      "10": 254,
      "comp": 255,
      "ub": 256,
      "li": 257,
      "rom": 258,
      "ul": 259,
      "em": 260,
      "ur": 261,
      "per": 262,
      "upd": 263,
      "ure": 264,
      "ite": 265,
      "test": 266,
      "RE": 267,
      "from": 268,
      "ci": 269,
      "PL": 270,
      "di": 271,
      "ss": 272,
      "ser": 273,
      "15": 274,
      "pa": 275,
      "ine": 276,
      "12": 277,
      "ATO": 278,
      "ore": 279,
      "sy": 280,
      "with": 281,
      "PLATO": 282,
      "Ad": 283,
      "ti": 284,
      "pt": 285,
      "erge": 286,
      "ase": 287,
      "work": 288,
      "ay": 289,
      "stra": 290,
      "ME": 291,
      "id": 292,
      "ers": 293,
      "ild": 294,
      "AD": 295,
      "all": 296,
      "rese": 297,
      "les": 298,
      "dep": 299,
      "Add": 300,
      "ive": 301,
      "tom": 302,
      "ory": 303,
      "agent": 304,
      "build": 305,
      "ne": 306,
      "READ": 307,
      "README": 308,
      "research": 309,
      "sh": 310,
      "update": 311,
      "ll": 312,
      "art": 313,
      "ab": 314,
      "13": 315,
      "of": 316,
      "pe": 317,
      "rust": 318,
      "autom": 319,
      "igh": 320,
      "20": 321,
      "54": 322,
      "cle": 323,
      "ity": 324,
      "24": 325,
      "ep": 326,
      "tra": 327,
      "automerge": 328,
      "45": 329,
      "ence": 330,
      "ess": 331,
      "ter": 332,
      "act": 333,
      "iz": 334,
      "box": 335,
      "mar": 336,
      "pap": 337,
      "age": 338,
      "pre": 339,
      "cture": 340,
      "mp": 341,
      "sand": 342,
      "ath": 343,
      "del": 344,
      "room": 345,
      "ke": 346,
      "ph": 347,
      "ts": 348,
      "sandbox": 349,
      "py": 350,
      "end": 351,
      "und": 352,
      "05": 353,
      "ifi": 354,
      "res": 355,
      "syn": 356,
      "ma": 357,
      "la": 358,
      "low": 359,
      "straint": 360,
      "lin": 361,
      "qu": 362,
      "ens": 363,
      "ated": 364,
      "11": 365,
      "sis": 366,
      "wr": 367,
      "constraint": 368,
      "ks": 369,
      "inst": 370,
      "pol": 371,
      "vi": 372,
      "ance": 373,
      "cri": 374,
      "ard": 375,
      "In": 376,
      "lu": 377,
      "par": 378,
      "remo": 379,
      "deps": 380,
      "cript": 381,
      "ial": 382,
      "op": 383,
      "hell": 384,
      "serv": 385,
      "ight": 386,
      "ain": 387,
      "ot": 388,
      "chore": 389,
      "model": 390,
      "14": 391,
      "cation": 392,
      "dge": 393,
      "che": 394,
      "av": 395,
      "cre": 396,
      "bump": 397,
      "26": 398,
      "du": 399,
      "ref": 400,
      "tests": 401,
      "ple": 402,
      "gu": 403,
      "wh": 404,
      "loc": 405,
      "use": 406,
      "one": 407,
      "pos": 408,
      "por": 409,
      "cr": 410,
      "col": 411,
      "remove": 412,
      "The": 413,
      "el": 414,
      "ration": 415,
      "um": 416,
      "atch": 417,
      "inte": 418,
      "ross": 419,
      "ign": 420,
      "check": 421,
      "00": 422,
      "cli": 423,
      "og": 424,
      "form": 425,
      "able": 426,
      "bri": 427,
      "tr": 428,
      "itecture": 429,
      "FL": 430,
      "dis": 431,
      "tt": 432,
      "exper": 433,
      "gen": 434,
      "gate": 435,
      "ix": 436,
      "rect": 437,
      "ded": 438,
      "03": 439,
      "dit": 440,
      "md": 441,
      "ow": 442,
      "log": 443,
      "17": 444,
      "cy": 445,
      "iment": 446,
      "me": 447,
      "read": 448,
      "architecture": 449,
      "Re": 450,
      "spe": 451,
      "stem": 452,
      "beat": 453,
      "paper": 454,
      "git": 455,
      "js": 456,
      "way": 457,
      "ssion": 458,
      "pack": 459,
      "artbeat": 460,
      "cross": 461,
      "pi": 462,
      "port": 463,
      "experiment": 464,
      "22": 465,
      "ker": 466,
      "we": 467,
      "rab": 468,
      "ctions": 469,
      "ft": 470,
      "plat": 471,
      "system": 472,
      "bridge": 473,
      "ack": 474,
      "ist": 475,
      "sup": 476,
      "sub": 477,
      "ant": 478,
      "2026": 479,
      "write": 480,
      "16": 481,
      "flow": 482,
      "audit": 483,
      "integ": 484,
      "UX": 485,
      "met": 486,
      "run": 487,
      "ans": 488,
      "anal": 489,
      "heartbeat": 490,
      "ages": 491,
      "ocap": 492,
      "ocapn": 493,
      "23": 494,
      "CI": 495,
      "HE": 496,
      "path": 497,
      "shell": 498,
      "v2": 499,
      "des": 500,
      "vers": 501,
      "not": 502,
      "FLUX": 503,
      "are": 504,
      "ding": 505,
      "ly": 506,
      "lease": 507,
      "new": 508,
      "ON": 509,
      "ty": 510,
      "workflow": 511,
      "Ph": 512,
      "Ro": 513,
      "ds": 514,
      "gine": 515,
      "je": 516,
      "ative": 517,
      "sync": 518,
      "law": 519,
      "ai": 520,
      "fin": 521,
      "fer": 522,
      "ument": 523,
      "release": 524,
      "ice": 525,
      "nore": 526,
      "ull": 527,
      "plato": 528,
      "dri": 529,
      "v0": 530,
      "ates": 531,
      "ench": 532,
      "repos": 533,
      "document": 534,
      "ignore": 535,
      "servation": 536,
      "19": 537,
      "AP": 538,
      "br": 539,
      "bench": 540,
      "lic": 541,
      "min": 542,
      "theory": 543,
      "gateway": 544,
      "analy": 545,
      "18": 546,
      "43": 547,
      "Com": 548,
      "St": 549,
      "cor": 550,
      "crab": 551,
      "line": 552,
      "val": 553,
      "lete": 554,
      "app": 555,
      "ization": 556,
      "mark": 557,
      "ified": 558,
      "Fix": 559,
      "Git": 560,
      "Hub": 561,
      "ST": 562,
      "ies": 563,
      "ud": 564,
      "stru": 565,
      "iss": 566,
      "install": 567,
      "analysis": 568,
      "CC": 569,
      "Up": 570,
      "zer": 571,
      "att": 572,
      "rewrite": 573,
      "session": 574,
      "clean": 575,
      "De": 576,
      "engine": 577,
      "comm": 578,
      "tocol": 579,
      "ical": 580,
      "exam": 581,
      "GitHub": 582,
      "Fleet": 583,
      "ho": 584,
      "jav": 585,
      "rate": 586,
      "dev": 587,
      "ass": 588,
      "ame": 589,
      "emory": 590,
      "papers": 591,
      "ification": 592,
      "integration": 593,
      "21": 594,
      "AR": 595,
      "Se": 596,
      "pub": 597,
      "ual": 598,
      "yth": 599,
      "ster": 600,
      "fir": 601,
      "anding": 602,
      "ascript": 603,
      "lock": 604,
      "Upd": 605,
      "javascript": 606,
      "IN": 607,
      "UD": 608,
      "ste": 609,
      "ary": 610,
      "hed": 611,
      "page": 612,
      "gh": 613,
      "cons": 614,
      "prov": 615,
      "pace": 616,
      "resul": 617,
      "AL": 618,
      "cocapn": 619,
      "est": 620,
      "lan": 621,
      "ode": 622,
      "out": 623,
      "tim": 624,
      "ish": 625,
      "cont": 626,
      "thesis": 627,
      "shi": 628,
      "results": 629,
      "fra": 630,
      "v3": 631,
      "vis": 632,
      "ition": 633,
      "ations": 634,
      "iler": 635,
      "load": 636,
      "thro": 637,
      "complete": 638,
      "cle1": 639,
      "ject": 640,
      "Update": 641,
      "Con": 642,
      "THE": 643,
      "dom": 644,
      "memory": 645,
      "code": 646,
      "point": 647,
      "tiles": 648,
      "rooms": 649,
      "lux": 650,
      "ttle": 651,
      "bin": 652,
      "gro": 653,
      "spl": 654,
      "chan": 655,
      "ctor": 656,
      "works": 657,
      "agents": 658,
      "track": 659,
      "gitignore": 660,
      "API": 661,
      "udy": 662,
      "01": 663,
      "02": 664,
      "ER": 665,
      "by": 666,
      "cur": 667,
      "flux": 668,
      "ide": 669,
      "vm": 670,
      "requ": 671,
      "conservation": 672,
      "polic": 673,
      "04": 674,
      "GP": 675,
      "IS": 676,
      "MUD": 677,
      "ac": 678,
      "der": 679,
      "ew": 680,
      "man": 681,
      "opt": 682,
      "sc": 683,
      "demo": 684,
      "deep": 685,
      "rout": 686,
      "state": 687,
      "vel": 688,
      "protocol": 689,
      "sert": 690,
      "langu": 691,
      "time": 692,
      "ace": 693,
      "back": 694,
      "math": 695,
      "xt": 696,
      "start": 697,
      "file": 698,
      "strap": 699,
      "view": 700,
      "otstrap": 701,
      "policy": 702,
      "Ora": 703,
      "lay": 704,
      "enco": 705,
      "text": 706,
      "lines": 707,
      "Phase": 708,
      "domain": 709,
      "CL": 710,
      "FM": 711,
      "iv": 712,
      "mat": 713,
      "enste": 714,
      "real": 715,
      "dex": 716,
      "isenste": 717,
      "server": 718,
      "benchmark": 719,
      "Oracle1": 720,
      "isenstein": 721,
      "06": 722,
      "IT": 723,
      "full": 724,
      "her": 725,
      "ld": 726,
      "map": 727,
      "ples": 728,
      "itial": 729,
      "cover": 730,
      "updated": 731,
      "version": 732,
      "2e": 733,
      "CT": 734,
      "UT": 735,
      "e2e": 736,
      "ms": 737,
      "os": 738,
      "pus": 739,
      "ror": 740,
      "ta": 741,
      "was": 742,
      "ata": 743,
      "ator": 744,
      "tool": 745,
      "hel": 746,
      "ings": 747,
      "words": 748,
      "now": 749,
      "marks": 750,
      "formal": 751,
      "Study": 752,
      "correct": 753,
      "structure": 754,
      "cleanup": 755,
      "examples": 756,
      "publ": 757,
      "first": 758,
      "EE": 759,
      "Pyth": 760,
      "ib": 761,
      "ile": 762,
      "night": 763,
      "ust": 764,
      "index": 765,
      "als": 766,
      "head": 767,
      "forge": 768,
      "ext": 769,
      "post": 770,
      "live": 771,
      "tile": 772,
      "actor": 773,
      "gener": 774,
      "super": 775,
      "ference": 776,
      "),": 777,
      "64": 778,
      "Mo": 779,
      "ale": 780,
      "hard": 781,
      "nap": 782,
      "ob": 783,
      "ry": 784,
      "script": 785,
      "ware": 786,
      "iter": 787,
      "let": 788,
      "ric": 789,
      "edu": 790,
      "old": 791,
      "docker": 792,
      "proof": 793,
      "inter": 794,
      "direct": 795,
      "documentation": 796,
      "GPU": 797,
      "07": 798,
      "08": 799,
      "25": 800,
      "For": 801,
      "TO": 802,
      "cl": 803,
      "go": 804,
      "ous": 805,
      "pen": 806,
      "patch": 807,
      "tri": 808,
      "ugh": 809,
      "ices": 810,
      "ill": 811,
      "synthesis": 812,
      "writ": 813,
      "Deep": 814,
      "09": 815,
      "EN": 816,
      "PR": 817,
      "Pro": 818,
      "ek": 819,
      "fy": 820,
      "landing": 821,
      "ral": 822,
      "erg": 823,
      "ree": 824,
      "alph": 825,
      "ism": 826,
      "ache": 827,
      "verification": 828,
      "core": 829,
      "bootstrap": 830,
      "world": 831,
      "master": 832,
      "ogy": 833,
      "own": 834,
      "shift": 835,
      "sertation": 836,
      "alpha": 837,
      "CD": 838,
      "KB": 839,
      "SS": 840,
      "over": 841,
      "ute": 842,
      "vo": 843,
      "ining": 844,
      "inference": 845,
      "ions": 846,
      "ention": 847,
      "files": 848,
      "bug": 849,
      "bottle": 850,
      "depend": 851,
      "tern": 852,
      "ize": 853,
      "ensor": 854,
      "Initial": 855,
      "cational": 856,
      "spect": 857,
      "antic": 858,
      "Round": 859,
      "workspace": 860,
      "73": 861,
      "bit": 862,
      "fl": 863,
      "lf": 864,
      "miss": 865,
      "sim": 866,
      "v1": 867,
      "war": 868,
      "stance": 869,
      "omy": 870,
      "section": 871,
      "oclaw": 872,
      "ility": 873,
      "ash": 874,
      "aging": 875,
      "compiler": 876,
      "refer": 877,
      "trans": 878,
      "support": 879,
      "design": 880,
      "driver": 881,
      "request": 882,
      "educational": 883,
      "27": 884,
      "28": 885,
      "48": 886,
      "AI": 887,
      "Cl": 888,
      "Night": 889,
      "action": 890,
      "bro": 891,
      "ip": 892,
      "ir": 893,
      "ire": 894,
      "our": 895,
      "tw": 896,
      "onomy": 897,
      "repo": 898,
      "repl": 899,
      "ang": 900,
      "rose": 901,
      "loy": 902,
      "loop": 903,
      "but": 904,
      "list": 905,
      "idation": 906,
      "links": 907,
      "refactor": 908,
      "experiments": 909,
      "wasm": 910,
      "47": 911,
      "CO": 912,
      "Ch": 913,
      "Eisenstein": 914,
      "block": 915,
      "cess": 916,
      "king": 917,
      "med": 918,
      "ue": 919,
      "ward": 920,
      "into": 921,
      "error": 922,
      "anch": 923,
      "unified": 924,
      "modu": 925,
      "node": 926,
      "ithub": 927,
      "peline": 928,
      "zero": 929,
      "command": 930,
      "through": 931,
      "69": 932,
      "::": 933,
      "C1": 934,
      "DO": 935,
      "HN": 936,
      "IP": 937,
      "JC1": 938,
      "ces": 939,
      "eco": 940,
      "gra": 941,
      "github": 942,
      "mon": 943,
      "ouse": 944,
      "snap": 945,
      "ari": 946,
      "dead": 947,
      "ush": 948,
      "aul": 949,
      "play": 950,
      "compre": 951,
      "trap": 952,
      "pipeline": 953,
      "CCC": 954,
      "attention": 955,
      "spline": 956,
      "optim": 957,
      "encoding": 958,
      "ecosystem": 959,
      "29": 960,
      "2I": 961,
      "AN": 962,
      "GE": 963,
      "IC": 964,
      "I2I": 965,
      "Merge": 966,
      "af": 967,
      "ail": 968,
      "base": 969,
      "mess": 970,
      "net": 971,
      "pr": 972,
      "pin": 973,
      "vs": 974,
      "yn": 975,
      "ins": 976,
      "ream": 977,
      "org": 978,
      "dete": 979,
      "get": 980,
      "conne": 981,
      "more": 982,
      "ulti": 983,
      "pers": 984,
      "diag": 985,
      "key": 986,
      "link": 987,
      "models": 988,
      "onest": 989,
      "crate": 990,
      "clip": 991,
      "dissertation": 992,
      "package": 993,
      "CLI": 994,
      "UTC": 995,
      "Python": 996,
      "95": 997,
      "He": 998,
      "ID": 999,
      "LL": 1000,
      "Sup": 1001,
      "cis": 1002,
      "data": 1003,
      "ev": 1004,
      "fore": 1005,
      "hol": 1006,
      "ken": 1007,
      "table": 1008,
      "erIn": 1009,
      "ency": 1010,
      "cher": 1011,
      "ord": 1012,
      "argo": 1013,
      "sem": 1014,
      "set": 1015,
      "aude": 1016,
      "ics": 1017,
      "theore": 1018,
      "verse": 1019,
      "project": 1020,
      "thouse": 1021,
      "updates": 1022,
      "Added": 1023,
      "deploy": 1024,
      "ighthouse": 1025,
      "white": 1026,
      "local": 1027,
      "position": 1028,
      "packaging": 1029,
      "zeroclaw": 1030,
      "Seed": 1031,
      "language": 1032,
      "hermit": 1033,
      "pushed": 1034,
      "Claude": 1035,
      "SuperIn": 1036,
      "SuperInstance": 1037,
      "67": 1038,
      "83": 1039,
      "Doc": 1040,
      "JS": 1041,
      "Rust": 1042,
      "VM": 1043,
      "bi": 1044,
      "cap": 1045,
      "cache": 1046,
      "den": 1047,
      "dent": 1048,
      "gap": 1049,
      "honest": 1050,
      "io": 1051,
      "kill": 1052,
      "name": 1053,
      "pon": 1054,
      "pur": 1055,
      "pass": 1056,
      "xy": 1057,
      "store": 1058,
      "reg": 1059,
      "chap": 1060,
      "led": 1061,
      "seed": 1062,
      "self": 1063,
      "fixes": 1064,
      "aper": 1065,
      "uplic": 1066,
      "pose": 1067,
      "intent": 1068,
      "plement": 1069,
      "workflows": 1070,
      "host": 1071,
      "provid": 1072,
      "tracking": 1073,
      "helm": 1074,
      "ault": 1075,
      "clippy": 1076,
      "44": 1077,
      "CH": 1078,
      "Code": 1079,
      "ION": 1080,
      "OR": 1081,
      "TL": 1082,
      "ave": 1083,
      "actions": 1084,
      "cla": 1085,
      "do": 1086,
      "duplic": 1087,
      "ges": 1088,
      "mur": 1089,
      "ound": 1090,
      "rand": 1091,
      "su": 1092,
      "sign": 1093,
      "tag": 1094,
      "ws": 1095,
      "attern": 1096,
      "review": 1097,
      "decom": 1098,
      "heal": 1099,
      "heel": 1100,
      "admap": 1101,
      "feature": 1102,
      "vector": 1103,
      "ther": 1104,
      "ution": 1105,
      "ural": 1106,
      "tier": 1107,
      "training": 1108,
      "ession": 1109,
      "phy": 1110,
      "respon": 1111,
      "poly": 1112,
      "when": 1113,
      "cycle": 1114,
      "final": 1115,
      "mini": 1116,
      "bind": 1117,
      "claim": 1118,
      "32": 1119,
      "49": 1120,
      "78": 1121,
      "Case": 1122,
      "Open": 1123,
      "RO": 1124,
      "ast": 1125,
      "across": 1126,
      "multi": 1127,
      "ning": 1128,
      "ness": 1129,
      "put": 1130,
      "pans": 1131,
      "tal": 1132,
      "stream": 1133,
      "ome": 1134,
      "itor": 1135,
      "chain": 1136,
      "ledge": 1137,
      "def": 1138,
      "ses": 1139,
      "ctive": 1140,
      "ribut": 1141,
      "added": 1142,
      "prove": 1143,
      "image": 1144,
      "implement": 1145,
      "108": 1146,
      "nel": 1147,
      "services": 1148,
      "crates": 1149,
      "readme": 1150,
      "paths": 1151,
      "branch": 1152,
      "ART": 1153,
      "ground": 1154,
      "routing": 1155,
      "nowledge": 1156,
      "two": 1157,
      "diagra": 1158,
      "Casey": 1159,
      "35": 1160,
      "38": 1161,
      "68": 1162,
      "79": 1163,
      "AS": 1164,
      "Actions": 1165,
      "EC": 1166,
      "Session": 1167,
      "_s": 1168,
      "can": 1169,
      "ec": 1170,
      "ever": 1171,
      "ise": 1172,
      "match": 1173,
      "pri": 1174,
      "pattern": 1175,
      "swe": 1176,
      "v4": 1177,
      "vari": 1178,
      "atal": 1179,
      "erti": 1180,
      "resh": 1181,
      "ality": 1182,
      "total": 1183,
      "before": 1184,
      "ology": 1185,
      "proxy": 1186,
      "that": 1187,
      "thin": 1188,
      "expl": 1189,
      "ames": 1190,
      "ulation": 1191,
      "essay": 1192,
      "active": 1193,
      "ized": 1194,
      "resol": 1195,
      "via": 1196,
      "client": 1197,
      "spec": 1198,
      "typ": 1199,
      "Comp": 1200,
      "attice": 1201,
      "Seek": 1202,
      "tools": 1203,
      "ible": 1204,
      "Forge": 1205,
      "DeepSeek": 1206,
      "spectral": 1207,
      "missing": 1208,
      "warm": 1209,
      "cision": 1210,
      "ordin": 1211,
      "duplicate": 1212,
      "bindgen": 1213,
      "claims": 1214,
      "()": 1215,
      "/{": 1216,
      "50": 1217,
      "Ar": 1218,
      "Cocapn": 1219,
      "CON": 1220,
      "Dis": 1221,
      "FI": 1222,
      "bers": 1223,
      "glu": 1224,
      "hy": 1225,
      "lighthouse": 1226,
      "lattice": 1227,
      "mapp": 1228,
      "nar": 1229,
      "num": 1230,
      "native": 1231,
      "sch": 1232,
      "sur": 1233,
      "tar": 1234,
      "tur": 1235,
      "ved": 1236,
      "ere": 1237,
      "enh": 1238,
      "stack": 1239,
      "itch": 1240,
      "rows": 1241,
      "ished": 1242,
      "igence": 1243,
      "verg": 1244,
      "verified": 1245,
      "produ": 1246,
      "profile": 1247,
      "coordin": 1248,
      "compute": 1249,
      "dif": 1250,
      "lligence": 1251,
      "actual": 1252,
      "endpoint": 1253,
      "instance": 1254,
      "avig": 1255,
      "credent": 1256,
      "subagent": 1257,
      "dings": 1258,
      "drift": 1259,
      "consol": 1260,
      "languages": 1261,
      "layer": 1262,
      "covery": 1263,
      "formalism": 1264,
      "publish": 1265,
      "replace": 1266,
      "deny": 1267,
      "decomposition": 1268,
      "glue": 1269,
      "credential": 1270,
      "36": 1271,
      "99": 1272,
      "DE": 1273,
      "ED": 1274,
      "En": 1275,
      "Pen": 1276,
      "Paper": 1277,
      "Shell": 1278,
      "TT": 1279,
      "Th": 1280,
      "Tile": 1281,
      "UR": 1282,
      "WIP": 1283,
      "bed": 1284,
      "ced": 1285,
      "ead": 1286,
      "gre": 1287,
      "ify": 1288,
      "knowledge": 1289,
      "pun": 1290,
      "sum": 1291,
      "tut": 1292,
      "ues": 1293,
      "vent": 1294,
      "vite": 1295,
      "}/": 1296,
      "ense": 1297,
      "only": 1298,
      "level": 1299,
      "allow": 1300,
      "roadmap": 1301,
      "bel": 1302,
      "ick": 1303,
      "forward": 1304,
      "confi": 1305,
      "ilation": 1306,
      "unt": 1307,
      "process": 1308,
      "improve": 1309,
      "compat": 1310,
      "comput": 1311,
      "dist": 1312,
      "keep": 1313,
      "phase": 1314,
      "enshell": 1315,
      "instead": 1316,
      "param": 1317,
      "ainer": 1318,
      "runtime": 1319,
      "type": 1320,
      "Phi": 1321,
      "license": 1322,
      "proven": 1323,
      "frame": 1324,
      "router": 1325,
      "published": 1326,
      "pincher": 1327,
      "Docker": 1328,
      "purple": 1329,
      "health": 1330,
      "sweep": 1331,
      "types": 1332,
      "Penrose": 1333,
      "tutor": 1334,
      "46": 1335,
      "55": 1336,
      "57": 1337,
      "Bo": 1338,
      "Gro": 1339,
      "Landing": 1340,
      "ML": 1341,
      "OL": 1342,
      "Po": 1343,
      "SP": 1344,
      "Sem": 1345,
      "bre": 1346,
      "cal": 1347,
      "ef": 1348,
      "eper": 1349,
      "fm": 1350,
      "hand": 1351,
      "ier": 1352,
      "jo": 1353,
      "ler": 1354,
      "pm": 1355,
      "pan": 1356,
      "ron": 1357,
      "rad": 1358,
      "sa": 1359,
      "strate": 1360,
      "omb": 1361,
      "ora": 1362,
      "beta": 1363,
      "ments": 1364,
      "context": 1365,
      "ask": 1366,
      "images": 1367,
      "plan": 1368,
      "novel": 1369,
      "libr": 1370,
      "embed": 1371,
      "cious": 1372,
      "shad": 1373,
      "show": 1374,
      "ability": 1375,
      "predi": 1376,
      "make": 1377,
      "ension": 1378,
      "ensus": 1379,
      "openshell": 1380,
      "create": 1381,
      "crit": 1382,
      "eld": 1383,
      "intelligence": 1384,
      "visor": 1385,
      "superinstance": 1386,
      "object": 1387,
      "iteration": 1388,
      "ergy": 1389,
      "modules": 1390,
      "organ": 1391,
      "detection": 1392,
      "whitepaper": 1393,
      "atalog": 1394,
      "thinking": 1395,
      "Compiler": 1396,
      "numbers": 1397,
      "Semantic": 1398,
      "37": 1399,
      "42": 1400,
      "60": 1401,
      "80": 1402,
      "97": 1403,
      "Aut": 1404,
      "ECT": 1405,
      "HTT": 1406,
      "Ke": 1407,
      "OS": 1408,
      "Py": 1409,
      "Spl": 1410,
      "abo": 1411,
      "clu": 1412,
      "dk": 1413,
      "dim": 1414,
      "dman": 1415,
      "mer": 1416,
      "next": 1417,
      "pull": 1418,
      "sing": 1419,
      "ten": 1420,
      "udi": 1421,
      "wheel": 1422,
      "alle": 1423,
      "aries": 1424,
      "separ": 1425,
      "hemat": 1426,
      "cts": 1427,
      "auth": 1428,
      "confir": 1429,
      "cept": 1430,
      "three": 1431,
      "extra": 1432,
      "compile": 1433,
      "compilation": 1434,
      "dir": 1435,
      "ident": 1436,
      "neg": 1437,
      "shot": 1438,
      "mary": 1439,
      "quick": 1440,
      "pollin": 1441,
      "polish": 1442,
      "service": 1443,
      "logg": 1444,
      "metric": 1445,
      "Room": 1446,
      "example": 1447,
      "public": 1448,
      "conscious": 1449,
      "ship": 1450,
      "throttle": 1451,
      "changes": 1452,
      "supervisor": 1453,
      "Model": 1454,
      "harden": 1455,
      "reference": 1456,
      "commands": 1457,
      "snap_": 1458,
      "compression": 1459,
      "message": 1460,
      "deployment": 1461,
      "providers": 1462,
      "response": 1463,
      "polyformalism": 1464,
      "vergence": 1465,
      "consolidation": 1466,
      "config": 1467,
      "tutorial": 1468,
      "library": 1469,
      "Autom": 1470,
      "HTTP": 1471,
      "--": 1472,
      "->": 1473,
      "31": 1474,
      "52": 1475,
      "76": 1476,
      "Al": 1477,
      "Ap": 1478,
      "Brand": 1479,
      "Ex": 1480,
      "GL": 1481,
      "MP": 1482,
      "Ma": 1483,
      "Ne": 1484,
      "Nar": 1485,
      "Tr": 1486,
      "_tests": 1487,
      "band": 1488,
      "cent": 1489,
      "cargo": 1490,
      "ele": 1491,
      "fun": 1492,
      "fli": 1493,
      "fact": 1494,
      "fals": 1495,
      "mach": 1496,
      "mid": 1497,
      "ner": 1498,
      "names": 1499,
      "ped": 1500,
      "prom": 1501,
      "sm": 1502,
      "so": 1503,
      "sw": 1504,
      "ters": 1505,
      "tensor": 1506,
      "ature": 1507,
      "str": 1508,
      "stor": 1509,
      "reverse": 1510,
      "restore": 1511,
      "orig": 1512,
      "arti": 1513,
      "root": 1514,
      "fic": 1515,
      "rig": 1516,
      "tem": 1517,
      "asure": 1518,
      "count": 1519,
      "bound": 1520,
      "word": 1521,
      "100": 1522,
      "izer": 1523,
      "label": 1524,
      "open": 1525,
      "guide": 1526,
      "what": 1527,
      "checks": 1528,
      "format": 1529,
      "disable": 1530,
      "mechan": 1531,
      "submit": 1532,
      "valid": 1533,
      "Conservation": 1534,
      "domains": 1535,
      "mathemat": 1536,
      "scripts": 1537,
      "TODO": 1538,
      "class": 1539,
      "patches": 1540,
      "referen": 1541,
      "broken": 1542,
      "optimization": 1543,
      "persist": 1544,
      "semantic": 1545,
      "signal": 1546,
      "diagrams": 1547,
      "framework": 1548,
      "shadow": 1549,
      "confirmed": 1550,
      "pollination": 1551,
      "Automerge": 1552,
      "Narrows": 1553,
      "origin": 1554,
      "30": 1555,
      "39": 1556,
      "512": 1557,
      "61": 1558,
      "77": 1559,
      "88": 1560,
      "Ag": 1561,
      "Co": 1562,
      "Claw": 1563,
      "Im": 1564,
      "QF": 1565,
      "RF": 1566,
      "TQF": 1567,
      "certi": 1568,
      "dra": 1569,
      "done": 1570,
      "down": 1571,
      "emit": 1572,
      "ger": 1573,
      "htt": 1574,
      "ki": 1575,
      "ku": 1576,
      "merge": 1577,
      "mix": 1578,
      "navig": 1579,
      "rative": 1580,
      "env": 1581,
      "stand": 1582,
      "step": 1583,
      "lection": 1584,
      "align": 1585,
      "rot": 1586,
      "hex": 1587,
      "cted": 1588,
      "field": 1589,
      "ock": 1590,
      "adig": 1591,
      "rap": 1592,
      "fixed": 1593,
      "ication": 1594,
      "velo": 1595,
      "upload": 1596,
      "asse": 1597,
      "igen": 1598,
      "thon": 1599,
      "archive": 1600,
      "uture": 1601,
      "ular": 1602,
      "emerg": 1603,
      "serve": 1604,
      "ally": 1605,
      "precision": 1606,
      "python": 1607,
      "maid": 1608,
      "ensive": 1609,
      "park": 1610,
      "paradig": 1611,
      "creative": 1612,
      "plete": 1613,
      "why": 1614,
      "locks": 1615,
      "ready": 1616,
      "speci": 1617,
      "web": 1618,
      "meta": 1619,
      "metho": 1620,
      "jection": 1621,
      "Complete": 1622,
      "validation": 1623,
      "container": 1624,
      "curity": 1625,
      "require": 1626,
      "scale": 1627,
      "tax": 1628,
      "headers": 1629,
      "writings": 1630,
      "dependent": 1631,
      "flush": 1632,
      "transl": 1633,
      "connection": 1634,
      "holonomy": 1635,
      "packaging_tests": 1636,
      "bian": 1637,
      "killer": 1638,
      "regist": 1639,
      "chapters": 1640,
      "default": 1641,
      "essays": 1642,
      "Forgemaster": 1643,
      "narrative": 1644,
      "fmt": 1645,
      "artifact": 1646,
      "http": 1647,
      "emergence": 1648,
      "/.": 1649,
      "110": 1650,
      "40": 1651,
      "58": 1652,
      "86": 1653,
      "AV": 1654,
      "Agen": 1655,
      "CV": 1656,
      "Cross": 1657,
      "DS": 1658,
      "OP": 1659,
      "Sim": 1660,
      "Un": 1661,
      "ak": 1662,
      "bbian": 1663,
      "dro": 1664,
      "day": 1665,
      "ear": 1666,
      "eisenstein": 1667,
      "face": 1668,
      "found": 1669,
      "glo": 1670,
      "game": 1671,
      "hor": 1672,
      "hensive": 1673,
      "kip": 1674,
      "ling": 1675,
      "non": 1676,
      "pu": 1677,
      "sor": 1678,
      "some": 1679,
      "swarm": 1680,
      "sdk": 1681,
      "ttier": 1682,
      "ves": 1683,
      "yle": 1684,
      "init": 1685,
      "inci": 1686,
      "style": 1687,
      "report": 1688,
      "its": 1689,
      "lear": 1690,
      "lective": 1691,
      "alone": 1692,
      "ark": 1693,
      "develo": 1694,
      "sec": 1695,
      "sections": 1696,
      "fil": 1697,
      "gets": 1698,
      "bet": 1699,
      "appl": 1700,
      "icro": 1701,
      "olution": 1702,
      "move": 1703,
      "exist": 1704,
      "board": 1705,
      "ATION": 1706,
      "ama": 1707,
      "cid": 1708,
      "diment": 1709,
      "dive": 1710,
      "orean": 1711,
      "toml": 1712,
      "abstra": 1713,
      "pread": 1714,
      "keeper": 1715,
      "paralle": 1716,
      "dual": 1717,
      "guard": 1718,
      "where": 1719,
      "checkpoint": 1720,
      "FLEE": 1721,
      "measure": 1722,
      "piled": 1723,
      "experimental": 1724,
      "findings": 1725,
      "benchmarks": 1726,
      "Compiled": 1727,
      "issue": 1728,
      "installer": 1729,
      "commun": 1730,
      "ARD": 1731,
      "consensus": 1732,
      "content": 1733,
      "visual": 1734,
      "split": 1735,
      "demos": 1736,
      "encoder": 1737,
      "ives": 1738,
      "hardware": 1739,
      "proofs": 1740,
      "directed": 1741,
      "penrose": 1742,
      "PRO": 1743,
      "Protocol": 1744,
      "voice": 1745,
      "flag": 1746,
      "simulation": 1747,
      "module": 1748,
      "graph": 1749,
      "traps": 1750,
      "GET": 1751,
      "after": 1752,
      "network": 1753,
      "print": 1754,
      "Hebbian": 1755,
      "setup": 1756,
      "theorem": 1757,
      "every": 1758,
      "production": 1759,
      "actualization": 1760,
      "summary": 1761,
      "strateg": 1762,
      "Spline": 1763,
      "udies": 1764,
      "identity": 1765,
      "consciousness": 1766,
      "function": 1767,
      "prompt": 1768,
      "references": 1769,
      "Agency": 1770,
      "FLEET": 1771,
      "2A": 1772,
      "33": 1773,
      "66": 1774,
      "A2A": 1775,
      "BE": 1776,
      "Cy": 1777,
      "Cre": 1778,
      "Crab": 1779,
      "Cargo": 1780,
      "E2": 1781,
      "GU": 1782,
      "IM": 1783,
      "IV": 1784,
      "L7": 1785,
      "Pre": 1786,
      "Patch": 1787,
      "Str": 1788,
      "TE": 1789,
      "Tensor": 1790,
      "URE": 1791,
      "We": 1792,
      "Zer": 1793,
      "ca": 1794,
      "clo": 1795,
      "case": 1796,
      "call": 1797,
      "dash": 1798,
      "eigen": 1799,
      "fol": 1800,
      "flo": 1801,
      "fail": 1802,
      "future": 1803,
      "high": 1804,
      "hist": 1805,
      "iqu": 1806,
      "late": 1807,
      "my": 1808,
      "mig": 1809,
      "she": 1810,
      "skip": 1811,
      "sprint": 1812,
      "task": 1813,
      "ven": 1814,
      "ype": 1815,
      "ernet": 1816,
      "enable": 1817,
      "ename": 1818,
      "red": 1819,
      "react": 1820,
      "omet": 1821,
      "order": 1822,
      "lement": 1823,
      "security": 1824,
      "sediment": 1825,
      "user": 1826,
      "feed": 1827,
      "temp": 1828,
      "eter": 1829,
      "concept": 1830,
      "thes": 1831,
      "agency": 1832,
      "agorean": 1833,
      "mode": 1834,
      "prop": 1835,
      "proto": 1836,
      "progre": 1837,
      "thresh": 1838,
      "exp": 1839,
      "export": 1840,
      "exec": 1841,
      "copy": 1842,
      "codes": 1843,
      "ubernet": 1844,
      "lib": 1845,
      "ulum": 1846,
      "builds": 1847,
      "termin": 1848,
      "prettier": 1849,
      "phi": 1850,
      "under": 1851,
      "synergy": 1852,
      "main": 1853,
      "Inte": 1854,
      "opcodes": 1855,
      "ports": 1856,
      "crush": 1857,
      "checking": 1858,
      "tting": 1859,
      "logs": 1860,
      "speed": 1861,
      "packages": 1862,
      "kernel": 1863,
      "weight": 1864,
      "HEART": 1865,
      "ONE": 1866,
      "typo": 1867,
      "ferent": 1868,
      "brand": 1869,
      "value": 1870,
      "issues": 1871,
      "ING": 1872,
      "contribut": 1873,
      "groq": 1874,
      "ISA": 1875,
      "timeout": 1876,
      "corrected": 1877,
      "Pythagorean": 1878,
      "riculum": 1879,
      "interactive": 1880,
      "SSH": 1881,
      "comprehensive": 1882,
      "chapter": 1883,
      "TLS": 1884,
      "murmur": 1885,
      "suite": 1886,
      "phys": 1887,
      "mapping": 1888,
      "target": 1889,
      "turn": 1890,
      "coordinate": 1891,
      "different": 1892,
      "URL": 1893,
      "punk": 1894,
      "provenance": 1895,
      "purplepincher": 1896,
      "Groq": 1897,
      "SPEC": 1898,
      "safe": 1899,
      "mermaid": 1900,
      "separate": 1901,
      "negative": 1902,
      "metrics": 1903,
      "Allow": 1904,
      "Trans": 1905,
      "machine": 1906,
      "Agent": 1907,
      "standalone": 1908,
      "alignment": 1909,
      "paradigm": 1910,
      "AVX": 1911,
      "BEAT": 1912,
      "GUARD": 1913,
      "ubernetes": 1914,
      "HEARTBEAT": 1915,
      "53": 1916,
      "96": 1917,
      "AIN": 1918,
      "Bomb": 1919,
      "Do": 1920,
      "Hol": 1921,
      "Imp": 1922,
      "Met": 1923,
      "NA": 1924,
      "NO": 1925,
      "No": 1926,
      "PI": 1927,
      "Pin": 1928,
      "Script": 1929,
      "Syn": 1930,
      "TR": 1931,
      "UN": 1932,
      "VER": 1933,
      "aw": 1934,
      "catalog": 1935,
      "don": 1936,
      "dle": 1937,
      "dyn": 1938,
      "fla": 1939,
      "fold": 1940,
      "has": 1941,
      "how": 1942,
      "have": 1943,
      "ied": 1944,
      "kubernetes": 1945,
      "mise": 1946,
      "micro": 1947,
      "ole": 1948,
      "oid": 1949,
      "ophy": 1950,
      "prese": 1951,
      "rc": 1952,
      "son": 1953,
      "spa": 1954,
      "side": 1955,
      "spans": 1956,
      "spark": 1957,
      "spread": 1958,
      "tru": 1959,
      "ug": 1960,
      "uch": 1961,
      "v5": 1962,
      "wer": 1963,
      "ating": 1964,
      "ind": 1965,
      "iness": 1966,
      "infra": 1967,
      "invent": 1968,
      "ong": 1969,
      "stri": 1970,
      "stale": 1971,
      "ane": 1972,
      "any": 1973,
      "arial": 1974,
      "delet": 1975,
      "secre": 1976,
      "fication": 1977,
      "righ": 1978,
      "stats": 1979,
      "fecycle": 1980,
      "tech": 1981,
      "constru": 1982,
      "ilt": 1983,
      "iling": 1984,
      "ilos": 1985,
      "assert": 1986,
      "built": 1987,
      "impl": 1988,
      "ampunk": 1989,
      "perspect": 1990,
      "testing": 1991,
      "cient": 1992,
      "dire": 1993,
      "pty": 1994,
      "working": 1995,
      "agentic": 1996,
      "need": 1997,
      "neural": 1998,
      "share": 1999,
      "ights": 2000,
      "agement": 2001,
      "philos": 2002,
      "sandboxes": 2003,
      "ending": 2004,
      "synthes": 2005,
      "quality": 2006,
      "constraints": 2007,
      "Int": 2008,
      "lucid": 2009,
      "remote": 2010,
      "crete": 2011,
      "used": 2012,
      "tron": 2013,
      "discovery": 2014,
      "logic": 2015,
      "Read": 2016,
      "versarial": 2017,
      "struct": 2018,
      "ARCH": 2019,
      "odeck": 2020,
      "vision": 2021,
      "loads": 2022,
      "ibility": 2023,
      "header": 2024,
      "interpre": 2025,
      "ENS": 2026,
      "ternal": 2027,
      "irror": 2028,
      "playground": 2029,
      "ICAL": 2030,
      "LLM": 2031,
      "semb": 2032,
      "theorems": 2033,
      "gaps": 2034,
      "passing": 2035,
      "implementation": 2036,
      "FIR": 2037,
      "hypo": 2038,
      "Three": 2039,
      "compatible": 2040,
      "parameter": 2041,
      "Bootstrap": 2042,
      "brea": 2043,
      "critical": 2044,
      "PyPI": 2045,
      "about": 2046,
      "clude": 2047,
      "quickstart": 2048,
      "publication": 2049,
      "Apache": 2050,
      "Make": 2051,
      "switch": 2052,
      "stories": 2053,
      "mathematical": 2054,
      "method": 2055,
      "requirement": 2056,
      "artifacts": 2057,
      "inciple": 2058,
      "abstraction": 2059,
      "parallel": 2060,
      "String": 2061,
      "history": 2062,
      "latest": 2063,
      "threshold": 2064,
      "Implement": 2065,
      "dynam": 2066,
      "presets": 2067,
      "shared": 2068,
      "philosophy": 2069,
      ").": 2070,
      "112": 2071,
      "41": 2072,
      "59": 2073,
      "70": 2074,
      "AM": 2075,
      "Au": 2076,
      "CR": 2077,
      "CY": 2078,
      "Cur": 2079,
      "Di": 2080,
      "ES": 2081,
      "GH": 2082,
      "Her": 2083,
      "IR": 2084,
      "KS": 2085,
      "Mon": 2086,
      "P0": 2087,
      "PO": 2088,
      "QU": 2089,
      "Res": 2090,
      "Snap": 2091,
      "Tra": 2092,
      "TER": 2093,
      "Text": 2094,
      "WAS": 2095,
      "aster": 2096,
      "bad": 2097,
      "blocks": 2098,
      "cet": 2099,
      "cas": 2100,
      "equ": 2101,
      "fo": 2102,
      "fall": 2103,
      "gn": 2104,
      "gpu": 2105,
      "lint": 2106,
      "lab": 2107,
      "mut": 2108,
      "ok": 2109,
      "oper": 2110,
      "pages": 2111,
      "pitch": 2112,
      "spi": 2113,
      "same": 2114,
      "skill": 2115,
      "tain": 2116,
      "v9": 2117,
      "wn": 2118,
      "wire": 2119,
      "wrap": 2120,
      "ys": 2121,
      "ined": 2122,
      "independent": 2123,
      "ery": 2124,
      "ena": 2125,
      "enfor": 2126,
      "story": 2127,
      "study": 2128,
      "studies": 2129,
      "rel": 2130,
      "relay": 2131,
      "cho": 2132,
      "chart": 2133,
      "ori": 2134,
      "lean": 2135,
      "aris": 2136,
      "argu": 2137,
      "top": 2138,
      "token": 2139,
      "sed": 2140,
      "rix": 2141,
      "ries": 2142,
      "edge": 2143,
      "oce": 2144,
      "adversarial": 2145,
      "gest": 2146,
      "beh": 2147,
      "apter": 2148,
      "aphor": 2149,
      "icit": 2150,
      "convergence": 2151,
      "ilot": 2152,
      "ason": 2153,
      "uni": 2154,
      "motron": 2155,
      "exact": 2156,
      "expose": 2157,
      "external": 2158,
      "cogn": 2159,
      "archiv": 2160,
      "amp": 2161,
      "complet": 2162,
      "compaction": 2163,
      "comparis": 2164,
      "lifecycle": 2165,
      "perf": 2166,
      "ssment": 2167,
      "orepo": 2168,
      "llvm": 2169,
      "rustfmt": 2170,
      "preserve": 2171,
      "pycache": 2172,
      "ensign": 2173,
      "parti": 2174,
      "avoid": 2175,
      "duce": 2176,
      "refresh": 2177,
      "reflection": 2178,
      "cry": 2179,
      "collective": 2180,
      "elf": 2181,
      "brief": 2182,
      "discover": 2183,
      "logo": 2184,
      "178": 2185,
      "pie": 2186,
      "pip": 2187,
      "ween": 2188,
      "subagents": 2189,
      "metic": 2190,
      "metaphor": 2191,
      "apping": 2192,
      "sessions": 2193,
      "engineer": 2194,
      "INDE": 2195,
      "odecet": 2196,
      "Constraint": 2197,
      "binary": 2198,
      "change": 2199,
      "channel": 2200,
      "curriculum": 2201,
      "flux_": 2202,
      "aces": 2203,
      "scaf": 2204,
      "startup": 2205,
      "layers": 2206,
      "CLE": 2207,
      "ITECT": 2208,
      "generated": 2209,
      "writing": 2210,
      "vouch": 2211,
      "simul": 2212,
      "ource": 2213,
      "medi": 2214,
      "monitor": 2215,
      "monorepo": 2216,
      "insight": 2217,
      "insights": 2218,
      "person": 2219,
      "holodeck": 2220,
      "projects": 2221,
      "provider": 2222,
      "CHART": 2223,
      "implementations": 2224,
      "matching": 2225,
      "mapped": 2226,
      "diff": 2227,
      "Engine": 2228,
      "computation": 2229,
      "Podman": 2230,
      "oracle1": 2231,
      "embedded": 2232,
      "objects": 2233,
      "dimension": 2234,
      "single": 2235,
      "logged": 2236,
      "Nemotron": 2237,
      "middle": 2238,
      "solete": 2239,
      "persistence": 2240,
      "RFC": 2241,
      "draft": 2242,
      "mixed": 2243,
      "navigation": 2244,
      "assessment": 2245,
      "registry": 2246,
      "DSL": 2247,
      "drop": 2248,
      "filter": 2249,
      "measurement": 2250,
      "Cycle": 2251,
      "E2E": 2252,
      "feedback": 2253,
      "progress": 2254,
      "expand": 2255,
      "Integ": 2256,
      "Pythagorean48": 2257,
      "Holonomy": 2258,
      "truth": 2259,
      "inventory": 2260,
      "techn": 2261,
      "direction": 2262,
      "ARCHITECT": 2263,
      "sembly": 2264,
      "CYCLE": 2265,
      "WASM": 2266,
      "badge": 2267,
      "casca": 2268,
      "archived": 2269,
      "comparison": 2270,
      "INDEX": 2271,
      "CHARTER": 2272,
      "middleware": 2273,
      "ARCHITECTURE": 2274,
      "115": 2275,
      "405": 2276,
      "56": 2277,
      "90": 2278,
      "98": 2279,
      "AB": 2280,
      "AG": 2281,
      "An": 2282,
      "Block": 2283,
      "CA": 2284,
      "Cor": 2285,
      "Certi": 2286,
      "Catalog": 2287,
      "Clean": 2288,
      "DONE": 2289,
      "EP": 2290,
      "Gal": 2291,
      "HC": 2292,
      "Hex": 2293,
      "IST": 2294,
      "KE": 2295,
      "LO": 2296,
      "Lab": 2297,
      "Min": 2298,
      "Memory": 2299,
      "MAN": 2300,
      "Or": 2301,
      "OSS": 2302,
      "Pl": 2303,
      "Pr": 2304,
      "RP": 2305,
      "Raw": 2306,
      "SO": 2307,
      "SEC": 2308,
      "SIM": 2309,
      "Self": 2310,
      "Tier": 2311,
      "Type": 2312,
      "Wheel": 2313,
      "ZHC": 2314,
      "__": 2315,
      "_bridge": 2316,
      "avi": 2317,
      "aware": 2318,
      "big": 2319,
      "batch": 2320,
      "cing": 2321,
      "cles": 2322,
      "cast": 2323,
      "dens": 2324,
      "dog": 2325,
      "dodecet": 2326,
      "each": 2327,
      "eval": 2328,
      "fal": 2329,
      "fast": 2330,
      "faster": 2331,
      "gor": 2332,
      "iki": 2333,
      "kes": 2334,
      "lim": 2335,
      "ml": 2336,
      "mn": 2337,
      "nor": 2338,
      "oi": 2339,
      "ois": 2340,
      "pure": 2341,
      "part": 2342,
      "rs": 2343,
      "rpm": 2344,
      "sn": 2345,
      "sat": 2346,
      "slow": 2347,
      "tu": 2348,
      "ting": 2349,
      "tone": 2350,
      "vated": 2351,
      "wo": 2352,
      "wen": 2353,
      "wid": 2354,
      "wave": 2355,
      "yo": 2356,
      "year": 2357,
      "ato": 2358,
      "ink": 2359,
      "incre": 2360,
      "initial": 2361,
      "eng": 2362,
      "return": 2363,
      "item": 2364,
      "char": 2365,
      "oral": 2366,
      "orbit": 2367,
      "less": 2368,
      "anti": 2369,
      "ants": 2370,
      "anced": 2371,
      "arra": 2372,
      "arith": 2373,
      "topol": 2374,
      "entries": 2375,
      "defin": 2376,
      "sel": 2377,
      "seek": 2378,
      "ros": 2379,
      "rock": 2380,
      "round": 2381,
      "geomet": 2382,
      "cement": 2383,
      "unit": 2384,
      "unused": 2385,
      "verify": 2386,
      "bul": 2387,
      "prob": 2388,
      "than": 2389,
      "imi": 2390,
      "imal": 2391,
      "cout": 2392,
      "cope": 2393,
      "coding": 2394,
      "podman": 2395,
      "fleet_": 2396,
      "note": 2397,
      "like": 2398,
      "uration": 2399,
      "perform": 2400,
      "permiss": 2401,
      "perature": 2402,
      "REST": 2403,
      "cience": 2404,
      "PLE": 2405,
      "idity": 2406,
      "depth": 2407,
      "update_": 2408,
      "abil": 2409,
      "press": 2410,
      "reson": 2411,
      "max": 2412,
      "maint": 2413,
      "118": 2414,
      "instru": 2415,
      "parsing": 2416,
      "duction": 2417,
      "checker": 2418,
      "formation": 2419,
      "tran": 2420,
      "cycles": 2421,
      "reading": 2422,
      "readiness": 2423,
      "Reverse": 2424,
      "running": 2425,
      "HELL": 2426,
      "driven": 2427,
      "Fixed": 2428,
      "uality": 2429,
      "ythos": 2430,
      "INT": 2431,
      "steampunk": 2432,
      "ALL": 2433,
      "output": 2434,
      "itions": 2435,
      "binaries": 2436,
      "tracked": 2437,
      "acc": 2438,
      "management": 2439,
      "scal": 2440,
      "started": 2441,
      "ivity": 2442,
      "hero": 2443,
      "generation": 2444,
      "generate": 2445,
      "obsolete": 2446,
      "directory": 2447,
      "TOOL": 2448,
      "triang": 2449,
      "written": 2450,
      "dependency": 2451,
      "warn": 2452,
      "COM": 2453,
      "errors": 2454,
      "grade": 2455,
      "deadband": 2456,
      "playtest": 2457,
      "messages": 2458,
      "Heartbeat": 2459,
      "event": 2460,
      "evolution": 2461,
      "JSON": 2462,
      "seeds": 2463,
      "streaming": 2464,
      "ributed": 2465,
      "diagram": 2466,
      "canary": 2467,
      "variant": 2468,
      "explor": 2469,
      "explicit": 2470,
      "resolve": 2471,
      "resolved": 2472,
      "Arch": 2473,
      "Dissertation": 2474,
      "targets": 2475,
      "turbo": 2476,
      "coordination": 2477,
      "credentials": 2478,
      "punch": 2479,
      "compatibility": 2480,
      "computing": 2481,
      "distill": 2482,
      "radar": 2483,
      "compiled": 2484,
      "logging": 2485,
      "elevated": 2486,
      "string": 2487,
      "rigidity": 2488,
      "boundary": 2489,
      "classification": 2490,
      "optimizations": 2491,
      "Coq": 2492,
      "rotation": 2493,
      "ocket": 2494,
      "taxonomy": 2495,
      "glot": 2496,
      "vessel": 2497,
      "learning": 2498,
      "between": 2499,
      "Zero": 2500,
      "float": 2501,
      "migration": 2502,
      "temporal": 2503,
      "safety": 2504,
      "infrastructure": 2505,
      "construction": 2506,
      "assertions": 2507,
      "interpreter": 2508,
      "Implemented": 2509,
      "Hermit": 2510,
      "POST": 2511,
      "scaffold": 2512,
      "Integration": 2513,
      "cascade": 2514,
      "Galois": 2515,
      "Principle": 2516,
      "RawString": 2517,
      "SIMD": 2518,
      "density": 2519,
      "false": 2520,
      "norm": 2521,
      "tui": 2522,
      "arithmetic": 2523,
      "performance": 2524,
      "TOOLS": 2525,
      "%,": 2526,
      "//": 2527,
      "63": 2528,
      "72": 2529,
      "75": 2530,
      "721": 2531,
      "8s": 2532,
      "922": 2533,
      "://": 2534,
      "At": 2535,
      "BO": 2536,
      "Be": 2537,
      "Bu": 2538,
      "BRO": 2539,
      "CE": 2540,
      "Cr": 2541,
      "CUD": 2542,
      "DC": 2543,
      "DN": 2544,
      "Don": 2545,
      "Dep": 2546,
      "EM": 2547,
      "EX": 2548,
      "FT": 2549,
      "Full": 2550,
      "GEN": 2551,
      "H1": 2552,
      "IEE": 2553,
      "Jet": 2554,
      "Lam": 2555,
      "Lighthouse": 2556,
      "MA": 2557,
      "MC": 2558,
      "Mat": 2559,
      "Man": 2560,
      "MAT": 2561,
      "Math": 2562,
      "Mark": 2563,
      "NL": 2564,
      "NN": 2565,
      "NAP": 2566,
      "Node": 2567,
      "Navig": 2568,
      "Ob": 2569,
      "ORE": 2570,
      "Opus": 2571,
      "P4": 2572,
      "PS": 2573,
      "Pol": 2574,
      "Pur": 2575,
      "Qu": 2576,
      "Qwen": 2577,
      "RAIN": 2578,
      "SD": 2579,
      "SE": 2580,
      "SH": 2581,
      "Sa": 2582,
      "Sh": 2583,
      "Sw": 2584,
      "Spo": 2585,
      "SER": 2586,
      "Spans": 2587,
      "Scout": 2588,
      "SNAP": 2589,
      "Ten": 2590,
      "Tem": 2591,
      "US": 2592,
      "Wor": 2593,
      "Z6": 2594,
      "Zone": 2595,
      "bas": 2596,
      "bund": 2597,
      "bash": 2598,
      "bomb": 2599,
      "cach": 2600,
      "cut": 2601,
      "card": 2602,
      "cust": 2603,
      "da": 2604,
      "fc": 2605,
      "ff": 2606,
      "fault": 2607,
      "fron": 2608,
      "ht": 2609,
      "hash": 2610,
      "if": 2611,
      "ky": 2612,
      "lap": 2613,
      "light": 2614,
      "liter": 2615,
      "lama": 2616,
      "long": 2617,
      "mud": 2618,
      "mirror": 2619,
      "nch": 2620,
      "ners": 2621,
      "npm": 2622,
      "other": 2623,
      "pment": 2624,
      "pilot": 2625,
      "ran": 2626,
      "rent": 2627,
      "rename": 2628,
      "rfc": 2629,
      "spo": 2630,
      "sive": 2631,
      "ske": 2632,
      "space": 2633,
      "size": 2634,
      "sensor": 2635,
      "socket": 2636,
      "tun": 2637,
      "tiling": 2638,
      "uum": 2639,
      "vac": 2640,
      "wing": 2641,
      "wrigh": 2642,
      "xel": 2643,
      "ze": 2644,
      "atter": 2645,
      "inu": 2646,
      "inate": 2647,
      "injection": 2648,
      "include": 2649,
      "information": 2650,
      "enci": 2651,
      "stic": 2652,
      "stration": 2653,
      "stabil": 2654,
      "req": 2655,
      "ress": 2656,
      "rema": 2657,
      "itory": 2658,
      "orn": 2659,
      "ors": 2660,
      "orche": 2661,
      "lex": 2662,
      "alace": 2663,
      "algor": 2664,
      "arity": 2665,
      "toler": 2666,
      "entry": 2667,
      "debug": 2668,
      "decision": 2669,
      "search": 2670,
      "rol": 2671,
      "five": 2672,
      "aunch": 2673,
      "esbuild": 2674,
      "adv": 2675,
      "adata": 2676,
      "isol": 2677,
      "teach": 2678,
      "andid": 2679,
      "icated": 2680,
      "ications": 2681,
      "ols": 2682,
      "olar": 2683,
      "ollama": 2684,
      "cond": 2685,
      "const": 2686,
      "convers": 2687,
      "confli": 2688,
      "cell": 2689,
      "theses": 2690,
      "lodash": 2691,
      "proper": 2692,
      "thology": 2693,
      "expan": 2694,
      "place": 2695,
      "plify": 2696,
      "bot": 2697,
      "boat": 2698,
      "uble": 2699,
      "email": 2700,
      "empty": 2701,
      "builder": 2702,
      "lling": 2703,
      "ables": 2704,
      "138": 2705,
      "prevent": 2706,
      "ender": 2707,
      "maker": 2708,
      "vir": 2709,
      "created": 2710,
      "refra": 2711,
      "uses": 2712,
      "Theory": 2713,
      "elim": 2714,
      "atches": 2715,
      "checkout": 2716,
      "checklist": 2717,
      "trad": 2718,
      "dispatch": 2719,
      "Rewrite": 2720,
      "Remove": 2721,
      "Research": 2722,
      "json": 2723,
      "ways": 2724,
      "antine": 2725,
      "integr": 2726,
      "metadata": 2727,
      "analog": 2728,
      "versal": 2729,
      "notes": 2730,
      "Rout": 2731,
      "finish": 2732,
      "fern": 2733,
      "repository": 2734,
      "Commit": 2735,
      "values": 2736,
      "apps": 2737,
      "Dead": 2738,
      "hour": 2739,
      "ything": 2740,
      "fram": 2741,
      "visitor": 2742,
      "Cons": 2743,
      "splice": 2744,
      "tracks": 2745,
      "byte": 2746,
      "cursor": 2747,
      "GPT": 2748,
      "access": 2749,
      "derive": 2750,
      "sccache": 2751,
      "deepseek": 2752,
      "ivation": 2753,
      "ITICAL": 2754,
      "help": 2755,
      "formalization": 2756,
      "EEP": 2757,
      "ibration": 2758,
      "extension": 2759,
      "general": 2760,
      "MoS": 2761,
      "Forward": 2762,
      "triple": 2763,
      "overri": 2764,
      "overview": 2765,
      "voxel": 2766,
      "dependenci": 2767,
      "bits": 2768,
      "brow": 2769,
      "twin": 2770,
      "replaces": 2771,
      "Chapter": 2772,
      "blocking": 2773,
      "based": 2774,
      "detect": 2775,
      "get_": 2776,
      "connect": 2777,
      "IDE": 2778,
      "LLVM": 2779,
      "whitepapers": 2780,
      "captain": 2781,
      "purpose": 2782,
      "does": 2783,
      "double": 2784,
      "suf": 2785,
      "features": 2786,
      "vectors": 2787,
      "thermo": 2788,
      "_slim": 2789,
      "canon": 2790,
      "everything": 2791,
      "variants": 2792,
      "Arena": 2793,
      "Discovery": 2794,
      "hyper": 2795,
      "scholar": 2796,
      "surface": 2797,
      "enhance": 2798,
      "enhanced": 2799,
      "enhorn": 2800,
      "processing": 2801,
      "distributed": 2802,
      "Dockerfile": 2803,
      "panel": 2804,
      "sales": 2805,
      "oracle": 2806,
      "novelty": 2807,
      "organization": 2808,
      "Keel": 2809,
      "cluster": 2810,
      "extracted": 2811,
      "shipwrigh": 2812,
      "falsified": 2813,
      "falsification": 2814,
      "disabled": 2815,
      "mechanism": 2816,
      "validate": 2817,
      "certification": 2818,
      "emitter": 2819,
      "kube": 2820,
      "hexane": 2821,
      "specific": 2822,
      "translation": 2823,
      "https": 2824,
      "OPENS": 2825,
      "Simul": 2826,
      "developer": 2827,
      "development": 2828,
      "seccomp": 2829,
      "apply": 2830,
      "applied": 2831,
      "community": 2832,
      "strategies": 2833,
      "Create": 2834,
      "Web": 2835,
      "folding": 2836,
      "failure": 2837,
      "iques": 2838,
      "sheaf": 2839,
      "concepts": 2840,
      "propag": 2841,
      "prototype": 2842,
      "terminal": 2843,
      "physics": 2844,
      "URLs": 2845,
      "Dojo": 2846,
      "NOT": 2847,
      "Pincher": 2848,
      "strip": 2849,
      "secret": 2850,
      "perspectives": 2851,
      "needs": 2852,
      "Intent": 2853,
      "hypotheses": 2854,
      "breaking": 2855,
      "methodology": 2856,
      "dynamics": 2857,
      "Auto": 2858,
      "CRITICAL": 2859,
      "fallback": 2860,
      "operation": 2861,
      "spike": 2862,
      "enforcement": 2863,
      "argument": 2864,
      "behavi": 2865,
      "partial": 2866,
      "pieces": 2867,
      "Correct": 2868,
      "Org": 2869,
      "Plato": 2870,
      "TypeScript": 2871,
      "snapping": 2872,
      "items": 2873,
      "topology": 2874,
      "geometry": 2875,
      "PLETE": 2876,
      "resonance": 2877,
      "HELL_": 2878,
      "INT8": 2879,
      "scaling": 2880,
      "warnings": 2881,
      "COMPLETE": 2882,
      "distillation": 2883,
      "CUDA": 2884,
      "IEEE": 2885,
      "Jetson": 2886,
      "Purple": 2887,
      "custom": 2888,
      "html": 2889,
      "vacuum": 2890,
      "remaining": 2891,
      "algorith": 2892,
      "conversation": 2893,
      "expanded": 2894,
      "dependencies": 2895,
      "OPENSHELL_": 2896,
      "2V": 2897,
      "212": 2898,
      "3D": 2899,
      "403": 2900,
      "51": 2901,
      "500": 2902,
      "62": 2903,
      "638": 2904,
      "71": 2905,
      "74": 2906,
      "8B": 2907,
      "91": 2908,
      "945": 2909,
      "As": 2910,
      "Act": 2911,
      "BR": 2912,
      "Cap": 2913,
      "Col": 2914,
      "Cam": 2915,
      "Cli": 2916,
      "CNA": 2917,
      "Dri": 2918,
      "DEN": 2919,
      "DEEP": 2920,
      "EI": 2921,
      "Ether": 2922,
      "Flow": 2923,
      "FAL": 2924,
      "F32": 2925,
      "GA": 2926,
      "GRO": 2927,
      "Home": 2928,
      "It": 2929,
      "IIT": 2930,
      "Kimi": 2931,
      "La": 2932,
      "Lu": 2933,
      "Ly": 2934,
      "Land": 2935,
      "Line": 2936,
      "Live": 2937,
      "MT": 2938,
      "Map": 2939,
      "MIT": 2940,
      "Multi": 2941,
      "NE": 2942,
      "Na": 2943,
      "PH": 2944,
      "Pages": 2945,
      "P48": 2946,
      "RD": 2947,
      "Run": 2948,
      "RRE": 2949,
      "Rep": 2950,
      "RMT": 2951,
      "So": 2952,
      "TH": 2953,
      "Trust": 2954,
      "Tide": 2955,
      "Tele": 2956,
      "Two": 2957,
      "UI": 2958,
      "V2": 2959,
      "Vis": 2960,
      "Wh": 2961,
      "_API": 2962,
      "_full": 2963,
      "_modules": 2964,
      "_KE": 2965,
      "a2": 2966,
      "ales": 2967,
      "ake": 2968,
      "ber": 2969,
      "bate": 2970,
      "batter": 2971,
      "cer": 2972,
      "cau": 2973,
      "cad": 2974,
      "cul": 2975,
      "clocks": 2976,
      "candid": 2977,
      "d_": 2978,
      "dic": 2979,
      "dream": 2980,
      "f8": 2981,
      "fat": 2982,
      "ful": 2983,
      "gg": 2984,
      "gr": 2985,
      "gated": 2986,
      "greg": 2987,
      "hit": 2988,
      "hip": 2989,
      "ian": 2990,
      "ife": 2991,
      "ibr": 2992,
      "jor": 2993,
      "just": 2994,
      "kh": 2995,
      "kit": 2996,
      "k8s": 2997,
      "lm": 2998,
      "lar": 2999,
      "launch": 3000,
      "mism": 3001,
      "mask": 3002,
      "mythos": 3003,
      "na": 3004,
      "oo": 3005,
      "ov": 3006,
      "ox": 3007,
      "oop": 3008,
      "pv": 3009,
      "ping": 3010,
      "pra": 3011,
      "pup": 3012,
      "prun": 3013,
      "pending": 3014,
      "rh": 3015,
      "rat": 3016,
      "rata": 3017,
      "rings": 3018,
      "sent": 3019,
      "sof": 3020,
      "score": 3021,
      "source": 3022,
      "tit": 3023,
      "tas": 3024,
      "ture": 3025,
      "trust": 3026,
      "ura": 3027,
      "ving": 3028,
      "vault": 3029,
      "wal": 3030,
      "wip": 3031,
      "wiki": 3032,
      "yard": 3033,
      "ater": 3034,
      "atives": 3035,
      "inno": 3036,
      "input": 3037,
      "errata": 3038,
      "ening": 3039,
      "energy": 3040,
      "onal": 3041,
      "onent": 3042,
      "stal": 3043,
      "stop": 3044,
      "stone": 3045,
      "rea": 3046,
      "reach": 3047,
      "rections": 3048,
      "recomm": 3049,
      "reports": 3050,
      "reweight": 3051,
      "rewritten": 3052,
      "chun": 3053,
      "child": 3054,
      "orph": 3055,
      "leg": 3056,
      "ancient": 3057,
      "comment": 3058,
      "arc": 3059,
      "arg": 3060,
      "arm": 3061,
      "aring": 3062,
      "decis": 3063,
      "debate": 3064,
      "second": 3065,
      "role": 3066,
      "route": 3067,
      "roduce": 3068,
      "hes": 3069,
      "fied": 3070,
      "usic": 3071,
      "usage": 3072,
      "beam": 3073,
      "raph": 3074,
      "andom": 3075,
      "ape": 3076,
      "apun": 3077,
      "olver": 3078,
      "concrete": 3079,
      "contrad": 3080,
      "asyn": 3081,
      "assembly": 3082,
      "agery": 3083,
      "aggreg": 3084,
      "modes": 3085,
      "moved": 3086,
      "buo": 3087,
      "prote": 3088,
      "propos": 3089,
      "this": 3090,
      "exports": 3091,
      "adding": 3092,
      "address": 3093,
      "ime": 3094,
      "import": 3095,
      "improv": 3096,
      "cos": 3097,
      "coder": 3098,
      "coexist": 3099,
      "poss": 3100,
      "plate": 3101,
      "plug": 3102,
      "boot": 3103,
      "noise": 3104,
      "utator": 3105,
      "utf8": 3106,
      "component": 3107,
      "limit": 3108,
      "ulative": 3109,
      "embr": 3110,
      "test_": 3111,
      "circ": 3112,
      "distance": 3113,
      "digest": 3114,
      "paign": 3115,
      "tide": 3116,
      "tive": 3117,
      "ased": 3118,
      "worker": 3119,
      "workers": 3120,
      "MED": 3121,
      "idue": 3122,
      "neu": 3123,
      "READMEs": 3124,
      "shop": 3125,
      "shape": 3126,
      "updateSpans": 3127,
      "llama": 3128,
      "pect": 3129,
      "automated": 3130,
      "clear": 3131,
      "train": 3132,
      "actable": 3133,
      "izing": 3134,
      "marine": 3135,
      "prep": 3136,
      "prefix": 3137,
      "delbro": 3138,
      "pyproject": 3139,
      "end_": 3140,
      "ifier": 3141,
      "syntax": 3142,
      "mac": 3143,
      "wrang": 3144,
      "viol": 3145,
      "Infra": 3146,
      "paration": 3147,
      "due": 3148,
      "refs": 3149,
      "criter": 3150,
      "ume": 3151,
      "00s": 3152,
      "trending": 3153,
      "Removed": 3154,
      "west": 3155,
      "plates": 3156,
      "platform": 3157,
      "systems": 3158,
      "subcommand": 3159,
      "integral": 3160,
      "runner": 3161,
      "runners": 3162,
      "shells": 3163,
      "Phys": 3164,
      "Roadmap": 3165,
      "finding": 3166,
      "minimal": 3167,
      "Start": 3168,
      "cord": 3169,
      "corrections": 3170,
      "STR": 3171,
      "commutator": 3172,
      "Updated": 3173,
      "outreach": 3174,
      "contain": 3175,
      "control": 3176,
      "fracture": 3177,
      "visible": 3178,
      "loading": 3179,
      "Confli": 3180,
      "bindings": 3181,
      "group": 3182,
      "bypass": 3183,
      "current": 3184,
      "cursive": 3185,
      "backup": 3186,
      "backend": 3187,
      "backward": 3188,
      "Phase1": 3189,
      "matrix": 3190,
      "ITY": 3191,
      "coverage": 3192,
      "versions": 3193,
      "CTION": 3194,
      "push": 3195,
      "helper": 3196,
      "correctness": 3197,
      "structured": 3198,
      "indexes": 3199,
      "heads": 3200,
      "heading": 3201,
      "forgemaster": 3202,
      "leton": 3203,
      "interval": 3204,
      "interface": 3205,
      "Fortran": 3206,
      "writes": 3207,
      "DeepInfra": 3208,
      "PRs": 3209,
      "Production": 3210,
      "owners": 3211,
      "CDI": 3212,
      "SSRF": 3213,
      "voices": 3214,
      "bugs": 3215,
      "Roundtable": 3216,
      "737": 3217,
      "simil": 3218,
      "simplify": 3219,
      "transfer": 3220,
      "transaction": 3221,
      "transitions": 3222,
      "supported": 3223,
      "angle": 3224,
      "angles": 3225,
      "CORRE": 3226,
      "Chang": 3227,
      "node_modules": 3228,
      "optimal": 3229,
      "GED": 3230,
      "diagno": 3231,
      "linked": 3232,
      "IDGED": 3233,
      "capability": 3234,
      "iodic": 3235,
      "aperiodic": 3236,
      "healing": 3237,
      "responses": 3238,
      "polyglot": 3239,
      "OpenAI": 3240,
      "define": 3241,
      "1084": 3242,
      "prior": 3243,
      "resolution": 3244,
      "CONFIR": 3245,
      "narrows": 3246,
      "endpoints": 3247,
      "publishing": 3248,
      "DEL": 3249,
      "Ensign": 3250,
      "greenhorn": 3251,
      "improvement": 3252,
      "improvements": 3253,
      "params": 3254,
      "Pool": 3255,
      "calibration": 3256,
      "calibr": 3257,
      "effe": 3258,
      "ierarch": 3259,
      "radial": 3260,
      "predict": 3261,
      "prediction": 3262,
      "Keeper": 3263,
      "abot": 3264,
      "separation": 3265,
      "authent": 3266,
      "extraction": 3267,
      "negatives": 3268,
      "Rooms": 3269,
      "Model2V": 3270,
      "hardening": 3271,
      "snap_a": 3272,
      "snap_b": 3273,
      "tutorials": 3274,
      "Exper": 3275,
      "centric": 3276,
      "namespace": 3277,
      "small": 3278,
      "smart": 3279,
      "storage": 3280,
      "temperature": 3281,
      "templates": 3282,
      "opening": 3283,
      "mechanic": 3284,
      "navigator": 3285,
      "assets": 3286,
      "webpack": 3287,
      "translator": 3288,
      "Simulation": 3289,
      "Unification": 3290,
      "glob": 3291,
      "better": 3292,
      "communication": 3293,
      "visuals": 3294,
      "prompts": 3295,
      "IVE": 3296,
      "calls": 3297,
      "dashboard": 3298,
      "ique": 3299,
      "sheet": 3300,
      "execution": 3301,
      "speedup": 3302,
      "contributing": 3303,
      "physical": 3304,
      "Transactable": 3305,
      "Metal": 3306,
      "UNCTION": 3307,
      "spawn": 3308,
      "deleted": 3309,
      "FIRST": 3310,
      "Monge": 3311,
      "TERRAIN": 3312,
      "wired": 3313,
      "orient": 3314,
      "ocean": 3315,
      "asoning": 3316,
      "universal": 3317,
      "cognition": 3318,
      "crystal": 3319,
      "178C": 3320,
      "simulations": 3321,
      "mediate": 3322,
      "techniques": 3323,
      "AGI": 3324,
      "Certify": 3325,
      "RPC": 3326,
      "evalu": 3327,
      "years": 3328,
      "ength": 3329,
      "charact": 3330,
      "bullet": 3331,
      "permissions": 3332,
      "triangular": 3333,
      "Architecture": 3334,
      "safety_": 3335,
      "MCP": 3336,
      "Mandelbro": 3337,
      "Navigator": 3338,
      "Safe": 3339,
      "Spoke": 3340,
      "caching": 3341,
      "skeleton": 3342,
      "tuning": 3343,
      "stabilize": 3344,
      "reqwest": 3345,
      "orchestration": 3346,
      "tolerance": 3347,
      "teaches": 3348,
      "constant": 3349,
      "eliminate": 3350,
      "Router": 3351,
      "bytecode": 3352,
      "overrides": 3353,
      "browser": 3354,
      "suffix": 3355,
      "canonical": 3356,
      "AutoCommit": 3357,
      "behavior": 3358,
      "BRIDGED": 3359,
      "CNAME": 3360,
      "Lyapun": 3361,
      "Landlock": 3362,
      "_API_KE": 3363,
      "_fullfat": 3364,
      "battery": 3365,
      "cadence": 3366,
      "large": 3367,
      "pract": 3368,
      "tasks": 3369,
      "uracy": 3370,
      "innov": 3371,
      "contradi": 3372,
      "aggregation": 3373,
      "coexistence": 3374,
      "plugin": 3375,
      "embryo": 3376,
      "wrangler": 3377,
      "criterion": 3378,
      "CONFIRMED": 3379,
      "Model2Vec": 3380,
      "Mandelbrot": 3381,
      "Lyapunov": 3382,
      "_API_KEY": 3383,
      "(/": 3384,
      "0B": 3385,
      "113": 3386,
      "145": 3387,
      "34": 3388,
      "3x": 3389,
      "4B": 3390,
      "454": 3391,
      "5KB": 3392,
      "610": 3393,
      "604": 3394,
      "81": 3395,
      "8b": 3396,
      "8h": 3397,
      "814": 3398,
      "800": 3399,
      "94": 3400,
      "900s": 3401,
      "Ab": 3402,
      "Aware": 3403,
      "AGE": 3404,
      "Bet": 3405,
      "BATO": 3406,
      "BUT": 3407,
      "BOL": 3408,
      "CAS": 3409,
      "CMake": 3410,
      "CKS": 3411,
      "DR": 3412,
      "DT": 3413,
      "Dro": 3414,
      "Duality": 3415,
      "Es": 3416,
      "E12": 3417,
      "ECI": 3418,
      "FP": 3419,
      "Fe": 3420,
      "Fl": 3421,
      "Fin": 3422,
      "Fore": 3423,
      "Fact": 3424,
      "F64": 3425,
      "FIC": 3426,
      "GC": 3427,
      "GS": 3428,
      "G_": 3429,
      "Gu": 3430,
      "Get": 3431,
      "GOL": 3432,
      "HQ": 3433,
      "Hai": 3434,
      "HDC": 3435,
      "Ident": 3436,
      "IFI": 3437,
      "IBUT": 3438,
      "JIT": 3439,
      "JECT": 3440,
      "JEP": 3441,
      "KEN": 3442,
      "LE": 3443,
      "L_": 3444,
      "Log": 3445,
      "LAB": 3446,
      "MU": 3447,
      "Me": 3448,
      "Mor": 3449,
      "May": 3450,
      "Mix": 3451,
      "MAP": 3452,
      "MIN": 3453,
      "Mirror": 3454,
      "NU": 3455,
      "Nix": 3456,
      "Names": 3457,
      "OF": 3458,
      "Oce": 3459,
      "Opt": 3460,
      "OID": 3461,
      "PE": 3462,
      "Per": 3463,
      "Play": 3464,
      "PEN": 3465,
      "Quality": 3466,
      "Q_API_KEY": 3467,
      "Roc": 3468,
      "SF": 3469,
      "Sy": 3470,
      "Sound": 3471,
      "Swarm": 3472,
      "Spark": 3473,
      "TW": 3474,
      "TY": 3475,
      "Ta": 3476,
      "To": 3477,
      "Tri": 3478,
      "Tol": 3479,
      "Try": 3480,
      "T07": 3481,
      "TTL": 3482,
      "Teach": 3483,
      "TUI": 3484,
      "UE": 3485,
      "Use": 3486,
      "Ve": 3487,
      "Ver": 3488,
      "WIN": 3489,
      "WOR": 3490,
      "XL": 3491,
      "ZC": 3492,
      "[#": 3493,
      "_to": 3494,
      "_v2": 3495,
      "_theory": 3496,
      "_vector": 3497,
      "_pri": 3498,
      "_changes": 3499,
      "_phi": 3500,
      "_history": 3501,
      "_vault": 3502,
      "_energy": 3503,
      "_coder": 3504,
      "acon": 3505,
      "acy": 3506,
      "bl": 3507,
      "bol": 3508,
      "bil": 3509,
      "bath": 3510,
      "blin": 3511,
      "barra": 3512,
      "c1": 3513,
      "cp": 3514,
      "cate": 3515,
      "cup": 3516,
      "cend": 3517,
      "clock": 3518,
      "cute": 3519,
      "camp": 3520,
      "dur": 3521,
      "dail": 3522,
      "dular": 3523,
      "dmn": 3524,
      "ey": 3525,
      "ecol": 3526,
      "eology": 3527,
      "fs": 3528,
      "fen": 3529,
      "fri": 3530,
      "fts": 3531,
      "ging": 3532,
      "ged": 3533,
      "gold": 3534,
      "gger": 3535,
      "hc": 3536,
      "hal": 3537,
      "har": 3538,
      "hig": 3539,
      "hum": 3540,
      "hold": 3541,
      "hd_": 3542,
      "hierarch": 3543,
      "ia": 3544,
      "ivi": 3545,
      "ift": 3546,
      "ield": 3547,
      "jk": 3548,
      "jl": 3549,
      "jn": 3550,
      "jr": 3551,
      "jt": 3552,
      "ju": 3553,
      "jv": 3554,
      "jw": 3555,
      "jx": 3556,
      "jy": 3557,
      "jz": 3558,
      "job": 3559,
      "jc1": 3560,
      "ka": 3561,
      "kb": 3562,
      "kc": 3563,
      "kd": 3564,
      "kf": 3565,
      "kg": 3566,
      "kj": 3567,
      "kk": 3568,
      "kl": 3569,
      "km": 3570,
      "ko": 3571,
      "kp": 3572,
      "kq": 3573,
      "kr": 3574,
      "kt": 3575,
      "kx": 3576,
      "ked": 3577,
      "kens": 3578,
      "krun": 3579,
      "l7": 3580,
      "lc": 3581,
      "lq": 3582,
      "ls": 3583,
      "lw": 3584,
      "mi": 3585,
      "mq": 3586,
      "mun": 3587,
      "merg": 3588,
      "mTLS": 3589,
      "music": 3590,
      "nb": 3591,
      "nd": 3592,
      "nf": 3593,
      "ng": 3594,
      "ni": 3595,
      "nn": 3596,
      "nw": 3597,
      "nes": 3598,
      "ned": 3599,
      "nav": 3600,
      "oh": 3601,
      "oq": 3602,
      "oom": 3603,
      "pd": 3604,
      "pf": 3605,
      "pj": 3606,
      "pk": 3607,
      "pn": 3608,
      "pp": 3609,
      "pq": 3610,
      "pw": 3611,
      "px": 3612,
      "pz": 3613,
      "pto": 3614,
      "pad": 3615,
      "palace": 3616,
      "ren": 3617,
      "sin": 3618,
      "slo": 3619,
      "sli": 3620,
      "site": 3621,
      "send": 3622,
      "sav": 3623,
      "scre": 3624,
      "scor": 3625,
      "sound": 3626,
      "scope": 3627,
      "science": 3628,
      "ted": 3629,
      "tic": 3630,
      "tight": 3631,
      "tical": 3632,
      "tree": 3633,
      "ually": 3634,
      "v6": 3635,
      "v7": 3636,
      "v8": 3637,
      "va": 3638,
      "vor": 3639,
      "var": 3640,
      "voce": 3641,
      "wa": 3642,
      "wild": 3643,
      "wall": 3644,
      "x512": 3645,
      "ymetric": 3646,
      "z3": 3647,
      "zai": 3648,
      "zhc": 3649,
      "~/.": 3650,
      "ines": 3651,
      "indu": 3652,
      "inates": 3653,
      "inject": 3654,
      "incorrect": 3655,
      "era": 3656,
      "eration": 3657,
      "erance": 3658,
      "erial": 3659,
      "ener": 3660,
      "eness": 3661,
      "envi": 3662,
      "ons": 3663,
      "ony": 3664,
      "once": 3665,
      "onboard": 3666,
      "std": 3667,
      "stry": 3668,
      "reat": 3669,
      "rebuild": 3670,
      "reject": 3671,
      "recovery": 3672,
      "reduce": 3673,
      "restarted": 3674,
      "recursive": 3675,
      "remediate": 3676,
      "ital": 3677,
      "ites": 3678,
      "ited": 3679,
      "itive": 3680,
      "ities": 3681,
      "itime": 3682,
      "ories": 3683,
      "lead": 3684,
      "lector": 3685,
      "leak": 3686,
      "ank": 3687,
      "ances": 3688,
      "anner": 3689,
      "anthology": 3690,
      "compl": 3691,
      "aler": 3692,
      "alized": 3693,
      "always": 3694,
      "arantine": 3695,
      "too": 3696,
      "todo": 3697,
      "entro": 3698,
      "entire": 3699,
      "dest": 3700,
      "see": 3701,
      "sett": 3702,
      "selection": 3703,
      "setting": 3704,
      "rolling": 3705,
      "het": 3706,
      "hest": 3707,
      "ctal": 3708,
      "fish": 3709,
      "ingu": 3710,
      "usion": 3711,
      "escal": 3712,
      "ridge": 3713,
      "ational": 3714,
      "getr": 3715,
      "beacon": 3716,
      "mental": 3717,
      "raw": 3718,
      "rain": 3719,
      "few": 3720,
      "tell": 3721,
      "etic": 3722,
      "etype": 3723,
      "appro": 3724,
      "ici": 3725,
      "icode": 3726,
      "vex": 3727,
      "vey": 3728,
      "commits": 3729,
      "upling": 3730,
      "combined": 3731,
      "conf": 3732,
      "conver": 3733,
      "constra": 3734,
      "contra": 3735,
      "condit": 3736,
      "convex": 3737,
      "unne": 3738,
      "unter": 3739,
      "unded": 3740,
      "unmatch": 3741,
      "unify": 3742,
      "unconscious": 3743,
      "undefin": 3744,
      "loo": 3745,
      "loom": 3746,
      "loss": 3747,
      "probe": 3748,
      "prover": 3749,
      "projection": 3750,
      "threa": 3751,
      "expans": 3752,
      "exclude": 3753,
      "express": 3754,
      "imes": 3755,
      "imate": 3756,
      "imped": 3757,
      "immun": 3758,
      "coupling": 3759,
      "counter": 3760,
      "cks": 3761,
      "pots": 3762,
      "pools": 3763,
      "archivi": 3764,
      "archetype": 3765,
      "ATUS": 3766,
      "amed": 3767,
      "rule": 3768,
      "rules": 3769,
      "lie": 3770,
      "emon": 3771,
      "tested": 3772,
      "REA": 3773,
      "REAL": 3774,
      "serial": 3775,
      "pare": 3776,
      "pair": 3777,
      "128": 3778,
      "orem": 3779,
      "sym": 3780,
      "without": 3781,
      "workshop": 3782,
      "idance": 3783,
      "idos": 3784,
      "buildx": 3785,
      "building": 3786,
      "never": 3787,
      "shake": 3788,
      "abl": 3789,
      "abling": 3790,
      "aboracle": 3791,
      "off": 3792,
      "rustc": 3793,
      "trace": 3794,
      "trail": 3795,
      "terrain": 3796,
      "activity": 3797,
      "actually": 3798,
      "marath": 3799,
      "maries": 3800,
      "maritime": 3801,
      "preparation": 3802,
      "delta": 3803,
      "keel": 3804,
      "php": 3805,
      "endly": 3806,
      "reshed": 3807,
      "resume": 3808,
      "makes": 3809,
      "major": 3810,
      "quas": 3811,
      "quanti": 3812,
      "quarantine": 3813,
      "vile": 3814,
      "vious": 3815,
      "viva": 3816,
      "Index": 3817,
      "Inher": 3818,
      "Inference": 3819,
      "paren": 3820,
      "ops": 3821,
      "1447": 3822,
      "avx512": 3823,
      "credit": 3824,
      "duality": 3825,
      "refreshed": 3826,
      "gui": 3827,
      "guidance": 3828,
      "poral": 3829,
      "colation": 3830,
      "colony": 3831,
      "Thesis": 3832,
      "Theorem": 3833,
      "check_vector": 3834,
      "000": 3835,
      "ogical": 3836,
      "formatt": 3837,
      "try": 3838,
      "trun": 3839,
      "display": 3840,
      "discrete": 3841,
      "disabling": 3842,
      "experti": 3843,
      "genetic": 3844,
      "dedicated": 3845,
      "03T07": 3846,
      "reads": 3847,
      "reader": 3848,
      "Real": 3849,
      "Release": 3850,
      "Replace": 3851,
      "Recursor": 3852,
      "222": 3853,
      "week": 3854,
      "istic": 3855,
      "istant": 3856,
      "submiss": 3857,
      "subprocess": 3858,
      "substrate": 3859,
      "integer": 3860,
      "answer": 3861,
      "desire": 3862,
      "noted": 3863,
      "plato_": 3864,
      "plato_s": 3865,
      "minor": 3866,
      "min_energy": 3867,
      "Stru": 3868,
      "Studi": 3869,
      "Studies": 3870,
      "linear": 3871,
      "markers": 3872,
      "Fixes": 3873,
      "STATUS": 3874,
      "Upgrade": 3875,
      "Death": 3876,
      "engineers": 3877,
      "common": 3878,
      "device": 3879,
      "assistant": 3880,
      "ARM": 3881,
      "ualization": 3882,
      "ythm": 3883,
      "console": 3884,
      "ALIST": 3885,
      "ishing": 3886,
      "continu": 3887,
      "fractal": 3888,
      "THEORE": 3889,
      "grok": 3890,
      "ctors": 3891,
      "tracker": 3892,
      "ideation": 3893,
      "manual": 3894,
      "manife": 3895,
      "statement": 3896,
      "material": 3897,
      "covered": 3898,
      "toolchain": 3899,
      "helpers": 3900,
      "EED": 3901,
      "posts": 3902,
      "posted": 3903,
      "generator": 3904,
      "642": 3905,
      "MoE": 3906,
      "aleidos": 3907,
      "258": 3908,
      "TOPS": 3909,
      "clone": 3910,
      "trim": 3911,
      "trigger": 3912,
      "PRI": 3913,
      "Proof": 3914,
      "Projection": 3915,
      "overlap": 3916,
      "dependabot": 3917,
      "Initialize": 3918,
      "bitvector": 3919,
      "flight": 3920,
      "transcend": 3921,
      "ird": 3922,
      "replication": 3923,
      "blocked": 3924,
      "cessary": 3925,
      "anchor": 3926,
      "throughput": 3927,
      "DOCKS": 3928,
      "grades": 3929,
      "dead_s": 3930,
      "optimizer": 3931,
      "AND": 3932,
      "ANN": 3933,
      "baseline": 3934,
      "messaging": 3935,
      "inside": 3936,
      "connected": 3937,
      "evening": 3938,
      "holds": 3939,
      "orders": 3940,
      "bient": 3941,
      "capac": 3942,
      "capstone": 3943,
      "stored": 3944,
      "444": 3945,
      "dojo": 3946,
      "random": 3947,
      "decompose": 3948,
      "tier1": 3949,
      "OpenShell": 3950,
      "_send_": 3951,
      "ecm": 3952,
      "primary": 3953,
      "patterns": 3954,
      "think": 3955,
      "explan": 3956,
      "Arm": 3957,
      "CONTR": 3958,
      "Disk": 3959,
      "FIX": 3960,
      "scho": 3961,
      "schem": 3962,
      "survi": 3963,
      "survey": 3964,
      "product": 3965,
      "compute_phi": 3966,
      "consolid": 3967,
      "glue_bridge": 3968,
      "36th": 3969,
      "Shells": 3970,
      "This": 3971,
      "URITY": 3972,
      "summaries": 3973,
      "vite_fullfat": 3974,
      "forwards": 3975,
      "healthy": 3976,
      "typescript": 3977,
      "Grok": 3978,
      "MLIR": 3979,
      "SPECI": 3980,
      "handler": 3981,
      "handshake": 3982,
      "join": 3983,
      "ronment": 3984,
      "embeds": 3985,
      "critique": 3986,
      "Key": 3987,
      "dirs": 3988,
      "shipped": 3989,
      "vergenceAware": 3990,
      "configuration": 3991,
      "Expose": 3992,
      "GLM": 3993,
      "Neural": 3994,
      "flip": 3995,
      "midnight": 3996,
      "template": 3997,
      "counting": 3998,
      "bounds": 3999,
      "boundaries": 4000,
      "validated": 4001,
      "mathematics": 4002,
      "persistent": 4003,
      "Claw1": 4004,
      "certify": 4005,
      "certific": 4006,
      "download": 4007,
      "mixing": 4008,
      "rotate": 4009,
      "methods": 4010,
      "containerized": 4011,
      "CVEs": 4012,
      "droid": 4013,
      "foundation": 4014,
      "horse": 4015,
      "existing": 4016,
      "guardc": 4017,
      "PROV": 4018,
      "everywhere": 4019,
      "strategy": 4020,
      "SplineLine": 4021,
      "functionality": 4022,
      "Previous": 4023,
      "TensorTile": 4024,
      "Zeroclaw": 4025,
      "eigenvector": 4026,
      "eigenvalue": 4027,
      "fails": 4028,
      "migrate": 4029,
      "redund": 4030,
      "libkrun": 4031,
      "differential": 4032,
      "Novel": 4033,
      "Sync": 4034,
      "Synthesis": 4035,
      "sideload": 4036,
      "spreadsheet": 4037,
      "secrets": 4038,
      "right": 4039,
      "implications": 4040,
      "perspective": 4041,
      "ptych": 4042,
      "synthesizer": 4043,
      "Introduce": 4044,
      "structural": 4045,
      "hypothesis": 4046,
      "dynamic": 4047,
      "Cursor": 4048,
      "DivergenceAware": 4049,
      "GHA": 4050,
      "Snaps": 4051,
      "skills": 4052,
      "wrapper": 4053,
      "independently": 4054,
      "relation": 4055,
      "cognitive": 4056,
      "completeness": 4057,
      "pycache__": 4058,
      "crypto": 4059,
      "discovered": 4060,
      "flux_c": 4061,
      "oracle1_history": 4062,
      "dimensional": 4063,
      "filtered": 4064,
      "progressive": 4065,
      "directional": 4066,
      "HexDisk": 4067,
      "SECURITY": 4068,
      "__pycache__": 4069,
      "widgets": 4070,
      "increased": 4071,
      "probes": 4072,
      "fleet_orchestration": 4073,
      "notepad": 4074,
      "update_blocks": 4075,
      "maintainer": 4076,
      "instruction": 4077,
      "instructions": 4078,
      "accum": 4079,
      "accuracy": 4080,
      "events": 4081,
      "exploration": 4082,
      "credentials_vault": 4083,
      "rigidity_theory": 4084,
      "BOTTL": 4085,
      "Bump": 4086,
      "Crush": 4087,
      "EXAM": 4088,
      "Laman": 4089,
      "Matrix": 4090,
      "MATLAB": 4091,
      "Poly": 4092,
      "Qwen3": 4093,
      "SDXL": 4094,
      "SHA": 4095,
      "Temporal": 4096,
      "basic": 4097,
      "bundle": 4098,
      "daemon": 4099,
      "frontier": 4100,
      "literature": 4101,
      "sensors": 4102,
      "advance": 4103,
      "conflicts": 4104,
      "integrity": 4105,
      "Deadband": 4106,
      "hours": 4107,
      "frames": 4108,
      "doesn": 4109,
      "shipwrights": 4110,
      "Simulink": 4111,
      "WebGPU": 4112,
      "failures": 4113,
      "propagate": 4114,
      "PlatoClaw": 4115,
      "JetsonClaw1": 4116,
      "PurplePincher": 4117,
      "algorithm": 4118,
      "2126": 4119,
      "Assembly": 4120,
      "Actualization": 4121,
      "Collective": 4122,
      "Client": 4123,
      "Drift": 4124,
      "FALS": 4125,
      "GROQ_API_KEY": 4126,
      "PHP": 4127,
      "SoA": 4128,
      "a2a": 4129,
      "candidate": 4130,
      "rhythm": 4131,
      "title": 4132,
      "walk": 4133,
      "ateral": 4134,
      "recommend": 4135,
      "reweighting": 4136,
      "chunks": 4137,
      "legacy": 4138,
      "decisions": 4139,
      "proposal": 4140,
      "workerd": 4141,
      "neuros": 4142,
      "trainer": 4143,
      "macOS": 4144,
      "violations": 4145,
      "backwards": 4146,
      "ownership": 4147,
      "similarity": 4148,
      "CORRECT": 4149,
      "effects": 4150,
      "authentication": 4151,
      "Experiment": 4152,
      "bulletin": 4153,
      "safety_metrics": 4154,
      "practical": 4155,
      "innovations": 4156,
      "8hr": 4157,
      "Abstra": 4158,
      "BATON": 4159,
      "Droid": 4160,
      "FPGA": 4161,
      "Final": 4162,
      "Factory": 4163,
      "Haiku": 4164,
      "Identity": 4165,
      "IFIED": 4166,
      "IBUTING": 4167,
      "JEPA": 4168,
      "Mayo": 4169,
      "Mixture": 4170,
      "Namespace": 4171,
      "Ocean": 4172,
      "OIDC": 4173,
      "Rocks": 4174,
      "System": 4175,
      "Tolerance": 4176,
      "blend": 4177,
      "bolic": 4178,
      "bilateral": 4179,
      "bathymetric": 4180,
      "blind": 4181,
      "barracks": 4182,
      "during": 4183,
      "daily": 4184,
      "ecology": 4185,
      "friendly": 4186,
      "golden": 4187,
      "half": 4188,
      "highest": 4189,
      "humans": 4190,
      "hd_computing": 4191,
      "slide": 4192,
      "screen": 4193,
      "scoring": 4194,
      "wildcard": 4195,
      "zai_coder": 4196,
      "environment": 4197,
      "onboarding": 4198,
      "entropy": 4199,
      "settings": 4200,
      "escalation": 4201,
      "getrandom": 4202,
      "condition": 4203,
      "unmatched": 4204,
      "undefined": 4205,
      "threaded": 4206,
      "expansion": 4207,
      "impedance": 4208,
      "immune": 4209,
      "archivist": 4210,
      "serialization": 4211,
      "marathon": 4212,
      "Inherited": 4213,
      "credits": 4214,
      "submission": 4215,
      "plato_sdk": 4216,
      "THEOREM": 4217,
      "manifest": 4218,
      "aleidoscope": 4219,
      "transcendent": 4220,
      "DOCKSIDE": 4221,
      "dead_spots": 4222,
      "_send_json": 4223,
      "CONTRIBUTING": 4224,
      "SplineLinear": 4225,
      "DivergenceAwareTolerance": 4226,
      "BOTTLE": 4227,
      "#,": 4228,
      "(~": 4229,
      ")\"": 4230,
      ")=": 4231,
      "++": 4232,
      "..": 4233,
      "2year": 4234,
      "300": 4235,
      "303": 4236,
      "378": 4237,
      "336": 4238,
      "330": 4239,
      "4D": 4240,
      "416": 4241,
      "65": 4242,
      "6B": 4243,
      "6K": 4244,
      "654": 4245,
      "645": 4246,
      "6KB": 4247,
      "653": 4248,
      "713": 4249,
      "720": 4250,
      "724": 4251,
      "711": 4252,
      "700": 4253,
      "701": 4254,
      "773": 4255,
      "744": 4256,
      "750": 4257,
      "742": 4258,
      "741": 4259,
      "815": 4260,
      "824": 4261,
      "822": 4262,
      "819": 4263,
      "843": 4264,
      "821": 4265,
      "806": 4266,
      "8KB": 4267,
      "895": 4268,
      "860": 4269,
      "9M": 4270,
      "918": 4271,
      "964": 4272,
      "978": 4273,
      "980": 4274,
      "986": 4275,
      "AC": 4276,
      "Af": 4277,
      "ARE": 4278,
      "All": 4279,
      "Att": 4280,
      "AST": 4281,
      "Bi": 4282,
      "Bat": 4283,
      "Ball": 4284,
      "Bel": 4285,
      "Batch": 4286,
      "BFT": 4287,
      "BPS": 4288,
      "Bridge": 4289,
      "BREA": 4290,
      "BAC": 4291,
      "CW": 4292,
      "Can": 4293,
      "Car": 4294,
      "Cas": 4295,
      "Cut": 4296,
      "Clu": 4297,
      "Cop": 4298,
      "C17": 4299,
      "Cud": 4300,
      "CAL": 4301,
      "CER": 4302,
      "CSF": 4303,
      "D6": 4304,
      "DM": 4305,
      "DU": 4306,
      "Dim": 4307,
      "Dual": 4308,
      "DIS": 4309,
      "Data": 4310,
      "Dash": 4311,
      "DNA": 4312,
      "E3": 4313,
      "EG": 4314,
      "EST": 4315,
      "EMP": 4316,
      "FA": 4317,
      "FD": 4318,
      "FR": 4319,
      "Fu": 4320,
      "Far": 4321,
      "Flo": 4322,
      "Fur": 4323,
      "Five": 4324,
      "Fla": 4325,
      "F26": 4326,
      "FIN": 4327,
      "Flux": 4328,
      "FAI": 4329,
      "Fir": 4330,
      "Four": 4331,
      "FOR": 4332,
      "FFI": 4333,
      "Future": 4334,
      "FEP": 4335,
      "FUNCTION": 4336,
      "Field": 4337,
      "Fishing": 4338,
      "GO": 4339,
      "GW": 4340,
      "Ge": 4341,
      "Go": 4342,
      "Gre": 4343,
      "Glu": 4344,
      "GIT": 4345,
      "GDN": 4346,
      "HI": 4347,
      "HY": 4348,
      "Hy": 4349,
      "Hard": 4350,
      "House": 4351,
      "Honest": 4352,
      "IZ": 4353,
      "If": 4354,
      "Io": 4355,
      "IFIC": 4356,
      "Ja": 4357,
      "JUNCTION": 4358,
      "KI": 4359,
      "KO": 4360,
      "Kan": 4361,
      "KST": 4362,
      "Knowledge": 4363,
      "KTH": 4364,
      "Koop": 4365,
      "Kaleidoscope": 4366,
      "LM": 4367,
      "LS": 4368,
      "Le": 4369,
      "Li": 4370,
      "LAT": 4371,
      "Lite": 4372,
      "List": 4373,
      "LEE": 4374,
      "LIC": 4375,
      "Lock": 4376,
      "Linu": 4377,
      "Loop": 4378,
      "LIVE": 4379,
      "MB": 4380,
      "Mer": 4381,
      "Mess": 4382,
      "MAR": 4383,
      "Micro": 4384,
      "Mythos": 4385,
      "Net": 4386,
      "Not": 4387,
      "Nob": 4388,
      "NECT": 4389,
      "O3": 4390,
      "OM": 4391,
      "Of": 4392,
      "On": 4393,
      "Over": 4394,
      "One": 4395,
      "OOR": 4396,
      "Own": 4397,
      "OCSF": 4398,
      "P3": 4399,
      "Pi": 4400,
      "Par": 4401,
      "Pri": 4402,
      "PAT": 4403,
      "Pub": 4404,
      "Pure": 4405,
      "Pack": 4406,
      "Pattern": 4407,
      "Palace": 4408,
      "RT": 4409,
      "RY": 4410,
      "Rub": 4411,
      "Rack": 4412,
      "Rename": 4413,
      "RBAC": 4414,
      "SV": 4415,
      "SY": 4416,
      "Ste": 4417,
      "SPL": 4418,
      "Sign": 4419,
      "Space": 4420,
      "SIS": 4421,
      "Skill": 4422,
      "SUR": 4423,
      "Spread": 4424,
      "Sug": 4425,
      "Source": 4426,
      "Spect": 4427,
      "Squas": 4428,
      "SEED": 4429,
      "TI": 4430,
      "Ty": 4431,
      "Tor": 4432,
      "Tun": 4433,
      "Tag": 4434,
      "Tru": 4435,
      "Test": 4436,
      "TUT": 4437,
      "Trig": 4438,
      "Trap": 4439,
      "TATION": 4440,
      "TAG": 4441,
      "UID": 4442,
      "UGH": 4443,
      "VC": 4444,
      "Vor": 4445,
      "VATION": 4446,
      "VIV": 4447,
      "WAL": 4448,
      "Wave": 4449,
      "Wiki": 4450,
      "WHY": 4451,
      "Yo": 4452,
      "Yor": 4453,
      "Z3": 4454,
      "_at": 4455,
      "_with": 4456,
      "_agent": 4457,
      "_log": 4458,
      "_path": 4459,
      "_plato": 4460,
      "_ass": 4461,
      "_forge": 4462,
      "_TO": 4463,
      "_go": 4464,
      "_our": 4465,
      "_level": 4466,
      "_str": 4467,
      "_patches": 4468,
      "_value": 4469,
      "_emitter": 4470,
      "_angle": 4471,
      "_std": 4472,
      "_TAG": 4473,
      "`--": 4474,
      "ax": 4475,
      "aint": 4476,
      "aev": 4477,
      "abel": 4478,
      "aClaw": 4479,
      "abul": 4480,
      "aeology": 4481,
      "bus": 4482,
      "bra": 4483,
      "blan": 4484,
      "bility": 4485,
      "bloom": 4486,
      "bird": 4487,
      "babel": 4488,
      "cs": 4489,
      "cat": 4490,
      "cit": 4491,
      "car": 4492,
      "cam": 4493,
      "cine": 4494,
      "cum": 4495,
      "cbindgen": 4496,
      "census": 4497,
      "cpu": 4498,
      "c_bridge": 4499,
      "cgroup": 4500,
      "dat": 4501,
      "dcs": 4502,
      "econ": 4503,
      "eas": 4504,
      "egg": 4505,
      "fit": 4506,
      "fac": 4507,
      "faction": 4508,
      "four": 4509,
      "fession": 4510,
      "fatal": 4511,
      "faces": 4512,
      "flex": 4513,
      "gin": 4514,
      "gri": 4515,
      "gment": 4516,
      "gpt": 4517,
      "gory": 4518,
      "gates": 4519,
      "giv": 4520,
      "grand": 4521,
      "grad": 4522,
      "gments": 4523,
      "gRPC": 4524,
      "hu": 4525,
      "hing": 4526,
      "haul": 4527,
      "hits": 4528,
      "ich": 4529,
      "iation": 4530,
      "i32": 4531,
      "jg": 4532,
      "jh": 4533,
      "jail": 4534,
      "kno": 4535,
      "kimi": 4536,
      "lon": 4537,
      "lis": 4538,
      "lure": 4539,
      "lapping": 4540,
      "mor": 4541,
      "mal": 4542,
      "mas": 4543,
      "mul": 4544,
      "mem": 4545,
      "mart": 4546,
      "mant": 4547,
      "nv": 4548,
      "nx": 4549,
      "nal": 4550,
      "nft": 4551,
      "null": 4552,
      "och": 4553,
      "oter": 4554,
      "ogu": 4555,
      "ough": 4556,
      "otive": 4557,
      "pc": 4558,
      "pau": 4559,
      "pul": 4560,
      "pend": 4561,
      "qs": 4562,
      "rd": 4563,
      "sf": 4564,
      "sl": 4565,
      "sal": 4566,
      "sus": 4567,
      "sil": 4568,
      "smo": 4569,
      "sam": 4570,
      "sence": 4571,
      "spar": 4572,
      "save": 4573,
      "somet": 4574,
      "solver": 4575,
      "tion": 4576,
      "tent": 4577,
      "tro": 4578,
      "tes": 4579,
      "tigh": 4580,
      "tual": 4581,
      "tural": 4582,
      "tender": 4583,
      "treat": 4584,
      "tank": 4585,
      "uit": 4586,
      "uine": 4587,
      "vin": 4588,
      "vate": 4589,
      "vul": 4590,
      "vage": 4591,
      "vend": 4592,
      "wit": 4593,
      "watch": 4594,
      "wAI": 4595,
      "wins": 4596,
      "wind": 4597,
      "ximate": 4598,
      "xnx": 4599,
      "yl": 4600,
      "yon": 4601,
      "yam": 4602,
      "your": 4603,
      "yaev": 4604,
      "zz": 4605,
      "zen": 4606,
      "zing": 4607,
      "zation": 4608,
      "zed": 4609,
      "zantine": 4610,
      "zoom": 4611,
      "²)": 4612,
      "₁₂": 4613,
      "atl": 4614,
      "ativity": 4615,
      "ina": 4616,
      "inc": 4617,
      "inspe": 4618,
      "infin": 4619,
      "infer": 4620,
      "incts": 4621,
      "inner": 4622,
      "invalid": 4623,
      "incompatible": 4624,
      "info": 4625,
      "ering": 4626,
      "eries": 4627,
      "erina": 4628,
      "ene": 4629,
      "enance": 4630,
      "enum": 4631,
      "ended": 4632,
      "oning": 4633,
      "oned": 4634,
      "ondri": 4635,
      "onoi": 4636,
      "sth": 4637,
      "sted": 4638,
      "stage": 4639,
      "standing": 4640,
      "stics": 4641,
      "stron": 4642,
      "stability": 4643,
      "rec": 4644,
      "reve": 4645,
      "repre": 4646,
      "restart": 4647,
      "restructure": 4648,
      "redirect": 4649,
      "recent": 4650,
      "rebuilds": 4651,
      "restri": 4652,
      "reduction": 4653,
      "repair": 4654,
      "recovered": 4655,
      "retro": 4656,
      "omorph": 4657,
      "iton": 4658,
      "itar": 4659,
      "itself": 4660,
      "chrom": 4661,
      "chess": 4662,
      "chron": 4663,
      "ort": 4664,
      "oration": 4665,
      "or_ass": 4666,
      "ano": 4667,
      "anion": 4668,
      "ange": 4669,
      "anim": 4670,
      "another": 4671,
      "come": 4672,
      "composition": 4673,
      "compose": 4674,
      "ali": 4675,
      "alog": 4676,
      "around": 4677,
      "arena": 4678,
      "toge": 4679,
      "topo": 4680,
      "tower": 4681,
      "delete": 4682,
      "devel": 4683,
      "delib": 4684,
      "determin": 4685,
      "degrades": 4686,
      "sever": 4687,
      "sets": 4688,
      "sequ": 4689,
      "seasoning": 4690,
      "row": 4691,
      "robin": 4692,
      "rough": 4693,
      "heter": 4694,
      "ctural": 4695,
      "fiel": 4696,
      "ficient": 4697,
      "fiber": 4698,
      "usal": 4699,
      "augment": 4700,
      "esse": 4701,
      "escap": 4702,
      "eslint": 4703,
      "ride": 4704,
      "riff": 4705,
      "static": 4706,
      "edul": 4707,
      "editor": 4708,
      "occup": 4709,
      "ocabul": 4710,
      "ociation": 4711,
      "ocsf": 4712,
      "adj": 4713,
      "adap": 4714,
      "adopt": 4715,
      "adapter": 4716,
      "adcast": 4717,
      "adrat": 4718,
      "geon": 4719,
      "getting": 4720,
      "below": 4721,
      "race": 4722,
      "raft": 4723,
      "isn": 4724,
      "isfaction": 4725,
      "isomorph": 4726,
      "fect": 4727,
      "feel": 4728,
      "teer": 4729,
      "tele": 4730,
      "mitche": 4731,
      "mitoch": 4732,
      "etc": 4733,
      "ets": 4734,
      "eting": 4735,
      "etho": 4736,
      "ether": 4737,
      "fixable": 4738,
      "api": 4739,
      "appe": 4740,
      "icate": 4741,
      "autopilot": 4742,
      "forg": 4743,
      "fork": 4744,
      "upstream": 4745,
      "olut": 4746,
      "olved": 4747,
      "ol_str": 4748,
      "concl": 4749,
      "converg": 4750,
      "concent": 4751,
      "ceed": 4752,
      "celi": 4753,
      "ils": 4754,
      "ilog": 4755,
      "theme": 4756,
      "their": 4757,
      "unification": 4758,
      "units": 4759,
      "unicode": 4760,
      "aged": 4761,
      "agno": 4762,
      "agree": 4763,
      "agonal": 4764,
      "lore": 4765,
      "mouse": 4766,
      "verifier": 4767,
      "butt": 4768,
      "proc": 4769,
      "prose": 4770,
      "thark": 4771,
      "exem": 4772,
      "expre": 4773,
      "exceed": 4774,
      "adds": 4775,
      "imum": 4776,
      "imagery": 4777,
      "imposs": 4778,
      "cot": 4779,
      "cost": 4780,
      "coales": 4781,
      "power": 4782,
      "pler": 4783,
      "plain": 4784,
      "plications": 4785,
      "archaeology": 4786,
      "both": 4787,
      "bodi": 4788,
      "bott": 4789,
      "book": 4790,
      "intro": 4791,
      "intention": 4792,
      "no_std": 4793,
      "ATEG": 4794,
      "amil": 4795,
      "amnes": 4796,
      "ambient": 4797,
      "104": 4798,
      "1000": 4799,
      "1069": 4800,
      "1083": 4801,
      "1078": 4802,
      "1037": 4803,
      "1077": 4804,
      "1075": 4805,
      "compres": 4806,
      "compass": 4807,
      "companion": 4808,
      "uba": 4809,
      "lize": 4810,
      "ula": 4811,
      "uld": 4812,
      "ult": 4813,
      "urn": 4814,
      "ury": 4815,
      "permut": 4816,
      "perfect": 4817,
      "RESS": 4818,
      "from_angle": 4819,
      "dix": 4820,
      "diale": 4821,
      "dified": 4822,
      "dibility": 4823,
      "15K": 4824,
      "paste": 4825,
      "inese": 4826,
      "127": 4827,
      "1210": 4828,
      "1205": 4829,
      "1200": 4830,
      "1219": 4831,
      "1243": 4832,
      "1247": 4833,
      "1235": 4834,
      "1246": 4835,
      "1237": 4836,
      "120B": 4837,
      "within": 4838,
      "ases": 4839,
      "workloads": 4840,
      "ider": 4841,
      "idence": 4842,
      "ADMAP": 4843,
      "ADJUNCTION": 4844,
      "tomic": 4845,
      "buildkit": 4846,
      "nested": 4847,
      "shar": 4848,
      "shallow": 4849,
      "update_s": 4850,
      "updateBlock": 4851,
      "llh": 4852,
      "arter": 4853,
      "abit": 4854,
      "132": 4855,
      "1300": 4856,
      "offic": 4857,
      "peteer": 4858,
      "automation": 4859,
      "automotive": 4860,
      "200": 4861,
      "2035": 4862,
      "2031": 4863,
      "240": 4864,
      "traced": 4865,
      "trained": 4866,
      "tracing": 4867,
      "452": 4868,
      "453": 4869,
      "activation": 4870,
      "izes": 4871,
      "margin": 4872,
      "preview": 4873,
      "prebuilt": 4874,
      "preprocessing": 4875,
      "preflight": 4876,
      "presence": 4877,
      "room_": 4878,
      "phone": 4879,
      "sandboxNamespace": 4880,
      "endices": 4881,
      "undici": 4882,
      "ifies": 4883,
      "residue": 4884,
      "made": 4885,
      "qual": 4886,
      "quis": 4887,
      "quest": 4888,
      "query": 4889,
      "queries": 4890,
      "quarter": 4891,
      "1118": 4892,
      "1195": 4893,
      "1167": 4894,
      "1161": 4895,
      "1186": 4896,
      "1172": 4897,
      "kside": 4898,
      "instances": 4899,
      "vide": 4900,
      "crib": 4901,
      "Inter": 4902,
      "Info": 4903,
      "lucine": 4904,
      "parser": 4905,
      "removed": 4906,
      "avail": 4907,
      "creation": 4908,
      "creativity": 4909,
      "bumping": 4910,
      "261": 4911,
      "duct": 4912,
      "dump": 4913,
      "refle": 4914,
      "refine": 4915,
      "gurab": 4916,
      "guest": 4917,
      "guitar": 4918,
      "whale": 4919,
      "whole": 4920,
      "which": 4921,
      "cold": 4922,
      "collab": 4923,
      "collap": 4924,
      "collis": 4925,
      "elve": 4926,
      "igning": 4927,
      "ograph": 4928,
      "ogene": 4929,
      "formula": 4930,
      "brid": 4931,
      "trend": 4932,
      "FLOOR": 4933,
      "disclaim": 4934,
      "expert": 4935,
      "genuine": 4936,
      "logkeeper": 4937,
      "cycl": 4938,
      "read_": 4939,
      "readable": 4940,
      "Repos": 4941,
      "Review": 4942,
      "Reason": 4943,
      "git_plato": 4944,
      "wayfinding": 4945,
      "experimentation": 4946,
      "systemd": 4947,
      "istency": 4948,
      "supplement": 4949,
      "subst": 4950,
      "subrout": 4951,
      "submarine": 4952,
      "flowing": 4953,
      "audits": 4954,
      "integrate": 4955,
      "metal": 4956,
      "metry": 4957,
      "run_": 4958,
      "runs": 4959,
      "analogy": 4960,
      "descript": 4961,
      "versality": 4962,
      "notation": 4963,
      "workflow_": 4964,
      "Role": 4965,
      "laws": 4966,
      "air": 4967,
      "ailed": 4968,
      "finds": 4969,
      "finesse": 4970,
      "releases": 4971,
      "documents": 4972,
      "documented": 4973,
      "lication": 4974,
      "minimum": 4975,
      "Common": 4976,
      "Stack": 4977,
      "correlation": 4978,
      "crabs": 4979,
      "lineage": 4980,
      "appendices": 4981,
      "marketing": 4982,
      "STY": 4983,
      "STAL": 4984,
      "STER": 4985,
      "issa": 4986,
      "installation": 4987,
      "attribut": 4988,
      "hod": 4989,
      "hook": 4990,
      "assigning": 4991,
      "Security": 4992,
      "stery": 4993,
      "sterRole": 4994,
      "INE": 4995,
      "proves": 4996,
      "proved": 4997,
      "establ": 4998,
      "lane": 4999
    },
    "merges": [
      [
        "a",
        "t"
      ],
      [
        "i",
        "n"
      ],
      [
        "e",
        "r"
      ],
      [
        "e",
        "n"
      ],
      [
        "o",
        "n"
      ],
      [
        "s",
        "t"
      ],
      [
        "r",
        "e"
      ],
      [
        "o",
        "m"
      ],
      [
        "i",
        "t"
      ],
      [
        "c",
        "h"
      ],
      [
        "o",
        "r"
      ],
      [
        "l",
        "e"
      ],
      [
        "a",
        "n"
      ],
      [
        "i",
        "on"
      ],
      [
        "c",
        "om"
      ],
      [
        "a",
        "l"
      ],
      [
        "a",
        "r"
      ],
      [
        "t",
        "o"
      ],
      [
        "en",
        "t"
      ],
      [
        "d",
        "e"
      ],
      [
        "s",
        "e"
      ],
      [
        "r",
        "o"
      ],
      [
        "h",
        "e"
      ],
      [
        "c",
        "t"
      ],
      [
        "f",
        "i"
      ],
      [
        "in",
        "g"
      ],
      [
        "u",
        "s"
      ],
      [
        "(",
        "#"
      ],
      [
        "a",
        "u"
      ],
      [
        "e",
        "s"
      ],
      [
        "r",
        "i"
      ],
      [
        "at",
        "ion"
      ],
      [
        "st",
        "at"
      ],
      [
        "e",
        "d"
      ],
      [
        "o",
        "c"
      ],
      [
        "a",
        "d"
      ],
      [
        "stat",
        "us"
      ],
      [
        "g",
        "e"
      ],
      [
        "b",
        "e"
      ],
      [
        "m",
        "ent"
      ],
      [
        "r",
        "a"
      ],
      [
        "i",
        "s"
      ],
      [
        ")",
        ":"
      ],
      [
        "f",
        "e"
      ],
      [
        "t",
        "e"
      ],
      [
        "m",
        "it"
      ],
      [
        "an",
        "d"
      ],
      [
        "fe",
        "at"
      ],
      [
        "e",
        "t"
      ],
      [
        "at",
        "e"
      ],
      [
        "a",
        "ch"
      ],
      [
        "fi",
        "x"
      ],
      [
        "a",
        "p"
      ],
      [
        "i",
        "c"
      ],
      [
        "v",
        "e"
      ],
      [
        "au",
        "to"
      ],
      [
        "f",
        "or"
      ],
      [
        "com",
        "mit"
      ],
      [
        "u",
        "p"
      ],
      [
        "o",
        "l"
      ],
      [
        "d",
        "oc"
      ],
      [
        "com",
        "b"
      ],
      [
        "be",
        "ach"
      ],
      [
        "beach",
        "comb"
      ],
      [
        "c",
        "on"
      ],
      [
        "c",
        "e"
      ],
      [
        "i",
        "l"
      ],
      [
        "a",
        "s"
      ],
      [
        "t",
        "he"
      ],
      [
        "i",
        "g"
      ],
      [
        "u",
        "n"
      ],
      [
        "a",
        "g"
      ],
      [
        "l",
        "o"
      ],
      [
        "m",
        "o"
      ],
      [
        "v",
        "er"
      ],
      [
        "b",
        "u"
      ],
      [
        "p",
        "ro"
      ],
      [
        "le",
        "et"
      ],
      [
        "t",
        "h"
      ],
      [
        "e",
        "x"
      ],
      [
        "doc",
        "s"
      ],
      [
        "ad",
        "d"
      ],
      [
        "i",
        "m"
      ],
      [
        "c",
        "o"
      ],
      [
        "c",
        "k"
      ],
      [
        "p",
        "o"
      ],
      [
        "ri",
        "ch"
      ],
      [
        "en",
        "rich"
      ],
      [
        "enrich",
        "ment"
      ],
      [
        "p",
        "l"
      ],
      [
        "ar",
        "ch"
      ],
      [
        "f",
        "leet"
      ],
      [
        "b",
        "o"
      ],
      [
        "w",
        "or"
      ],
      [
        "ct",
        "ion"
      ],
      [
        "in",
        "t"
      ],
      [
        "n",
        "o"
      ],
      [
        "u",
        "t"
      ],
      [
        "A",
        "T"
      ],
      [
        "a",
        "m"
      ],
      [
        "r",
        "u"
      ],
      [
        "it",
        "h"
      ],
      [
        "1",
        "0"
      ],
      [
        "com",
        "p"
      ],
      [
        "u",
        "b"
      ],
      [
        "l",
        "i"
      ],
      [
        "r",
        "om"
      ],
      [
        "u",
        "l"
      ],
      [
        "e",
        "m"
      ],
      [
        "u",
        "r"
      ],
      [
        "p",
        "er"
      ],
      [
        "up",
        "d"
      ],
      [
        "u",
        "re"
      ],
      [
        "it",
        "e"
      ],
      [
        "te",
        "st"
      ],
      [
        "R",
        "E"
      ],
      [
        "f",
        "rom"
      ],
      [
        "c",
        "i"
      ],
      [
        "P",
        "L"
      ],
      [
        "d",
        "i"
      ],
      [
        "s",
        "s"
      ],
      [
        "s",
        "er"
      ],
      [
        "1",
        "5"
      ],
      [
        "p",
        "a"
      ],
      [
        "in",
        "e"
      ],
      [
        "1",
        "2"
      ],
      [
        "AT",
        "O"
      ],
      [
        "o",
        "re"
      ],
      [
        "s",
        "y"
      ],
      [
        "w",
        "ith"
      ],
      [
        "PL",
        "ATO"
      ],
      [
        "A",
        "d"
      ],
      [
        "t",
        "i"
      ],
      [
        "p",
        "t"
      ],
      [
        "er",
        "ge"
      ],
      [
        "a",
        "se"
      ],
      [
        "wor",
        "k"
      ],
      [
        "a",
        "y"
      ],
      [
        "st",
        "ra"
      ],
      [
        "M",
        "E"
      ],
      [
        "i",
        "d"
      ],
      [
        "er",
        "s"
      ],
      [
        "il",
        "d"
      ],
      [
        "A",
        "D"
      ],
      [
        "al",
        "l"
      ],
      [
        "re",
        "se"
      ],
      [
        "le",
        "s"
      ],
      [
        "de",
        "p"
      ],
      [
        "Ad",
        "d"
      ],
      [
        "i",
        "ve"
      ],
      [
        "t",
        "om"
      ],
      [
        "or",
        "y"
      ],
      [
        "ag",
        "ent"
      ],
      [
        "bu",
        "ild"
      ],
      [
        "n",
        "e"
      ],
      [
        "RE",
        "AD"
      ],
      [
        "READ",
        "ME"
      ],
      [
        "rese",
        "arch"
      ],
      [
        "s",
        "h"
      ],
      [
        "upd",
        "ate"
      ],
      [
        "l",
        "l"
      ],
      [
        "ar",
        "t"
      ],
      [
        "a",
        "b"
      ],
      [
        "1",
        "3"
      ],
      [
        "o",
        "f"
      ],
      [
        "p",
        "e"
      ],
      [
        "ru",
        "st"
      ],
      [
        "au",
        "tom"
      ],
      [
        "ig",
        "h"
      ],
      [
        "2",
        "0"
      ],
      [
        "5",
        "4"
      ],
      [
        "c",
        "le"
      ],
      [
        "it",
        "y"
      ],
      [
        "2",
        "4"
      ],
      [
        "e",
        "p"
      ],
      [
        "t",
        "ra"
      ],
      [
        "autom",
        "erge"
      ],
      [
        "4",
        "5"
      ],
      [
        "en",
        "ce"
      ],
      [
        "es",
        "s"
      ],
      [
        "t",
        "er"
      ],
      [
        "a",
        "ct"
      ],
      [
        "i",
        "z"
      ],
      [
        "bo",
        "x"
      ],
      [
        "m",
        "ar"
      ],
      [
        "p",
        "ap"
      ],
      [
        "a",
        "ge"
      ],
      [
        "p",
        "re"
      ],
      [
        "ct",
        "ure"
      ],
      [
        "m",
        "p"
      ],
      [
        "s",
        "and"
      ],
      [
        "at",
        "h"
      ],
      [
        "de",
        "l"
      ],
      [
        "ro",
        "om"
      ],
      [
        "k",
        "e"
      ],
      [
        "p",
        "h"
      ],
      [
        "t",
        "s"
      ],
      [
        "sand",
        "box"
      ],
      [
        "p",
        "y"
      ],
      [
        "en",
        "d"
      ],
      [
        "un",
        "d"
      ],
      [
        "0",
        "5"
      ],
      [
        "i",
        "fi"
      ],
      [
        "re",
        "s"
      ],
      [
        "sy",
        "n"
      ],
      [
        "m",
        "a"
      ],
      [
        "l",
        "a"
      ],
      [
        "lo",
        "w"
      ],
      [
        "stra",
        "int"
      ],
      [
        "l",
        "in"
      ],
      [
        "q",
        "u"
      ],
      [
        "en",
        "s"
      ],
      [
        "at",
        "ed"
      ],
      [
        "1",
        "1"
      ],
      [
        "s",
        "is"
      ],
      [
        "w",
        "r"
      ],
      [
        "con",
        "straint"
      ],
      [
        "k",
        "s"
      ],
      [
        "in",
        "st"
      ],
      [
        "p",
        "ol"
      ],
      [
        "v",
        "i"
      ],
      [
        "an",
        "ce"
      ],
      [
        "c",
        "ri"
      ],
      [
        "ar",
        "d"
      ],
      [
        "I",
        "n"
      ],
      [
        "l",
        "u"
      ],
      [
        "p",
        "ar"
      ],
      [
        "re",
        "mo"
      ],
      [
        "dep",
        "s"
      ],
      [
        "cri",
        "pt"
      ],
      [
        "i",
        "al"
      ],
      [
        "o",
        "p"
      ],
      [
        "he",
        "ll"
      ],
      [
        "ser",
        "v"
      ],
      [
        "igh",
        "t"
      ],
      [
        "a",
        "in"
      ],
      [
        "o",
        "t"
      ],
      [
        "ch",
        "ore"
      ],
      [
        "mo",
        "del"
      ],
      [
        "1",
        "4"
      ],
      [
        "c",
        "ation"
      ],
      [
        "d",
        "ge"
      ],
      [
        "ch",
        "e"
      ],
      [
        "a",
        "v"
      ],
      [
        "c",
        "re"
      ],
      [
        "bu",
        "mp"
      ],
      [
        "2",
        "6"
      ],
      [
        "d",
        "u"
      ],
      [
        "re",
        "f"
      ],
      [
        "test",
        "s"
      ],
      [
        "p",
        "le"
      ],
      [
        "g",
        "u"
      ],
      [
        "w",
        "h"
      ],
      [
        "l",
        "oc"
      ],
      [
        "u",
        "se"
      ],
      [
        "on",
        "e"
      ],
      [
        "po",
        "s"
      ],
      [
        "p",
        "or"
      ],
      [
        "c",
        "r"
      ],
      [
        "c",
        "ol"
      ],
      [
        "remo",
        "ve"
      ],
      [
        "T",
        "he"
      ],
      [
        "e",
        "l"
      ],
      [
        "r",
        "ation"
      ],
      [
        "u",
        "m"
      ],
      [
        "at",
        "ch"
      ],
      [
        "in",
        "te"
      ],
      [
        "ro",
        "ss"
      ],
      [
        "ig",
        "n"
      ],
      [
        "che",
        "ck"
      ],
      [
        "0",
        "0"
      ],
      [
        "c",
        "li"
      ],
      [
        "o",
        "g"
      ],
      [
        "for",
        "m"
      ],
      [
        "ab",
        "le"
      ],
      [
        "b",
        "ri"
      ],
      [
        "t",
        "r"
      ],
      [
        "ite",
        "cture"
      ],
      [
        "F",
        "L"
      ],
      [
        "d",
        "is"
      ],
      [
        "t",
        "t"
      ],
      [
        "ex",
        "per"
      ],
      [
        "g",
        "en"
      ],
      [
        "g",
        "ate"
      ],
      [
        "i",
        "x"
      ],
      [
        "re",
        "ct"
      ],
      [
        "de",
        "d"
      ],
      [
        "0",
        "3"
      ],
      [
        "d",
        "it"
      ],
      [
        "m",
        "d"
      ],
      [
        "o",
        "w"
      ],
      [
        "lo",
        "g"
      ],
      [
        "1",
        "7"
      ],
      [
        "c",
        "y"
      ],
      [
        "i",
        "ment"
      ],
      [
        "m",
        "e"
      ],
      [
        "re",
        "ad"
      ],
      [
        "arch",
        "itecture"
      ],
      [
        "R",
        "e"
      ],
      [
        "s",
        "pe"
      ],
      [
        "st",
        "em"
      ],
      [
        "be",
        "at"
      ],
      [
        "pap",
        "er"
      ],
      [
        "g",
        "it"
      ],
      [
        "j",
        "s"
      ],
      [
        "w",
        "ay"
      ],
      [
        "ss",
        "ion"
      ],
      [
        "pa",
        "ck"
      ],
      [
        "art",
        "beat"
      ],
      [
        "c",
        "ross"
      ],
      [
        "p",
        "i"
      ],
      [
        "por",
        "t"
      ],
      [
        "exper",
        "iment"
      ],
      [
        "2",
        "2"
      ],
      [
        "k",
        "er"
      ],
      [
        "w",
        "e"
      ],
      [
        "ra",
        "b"
      ],
      [
        "ction",
        "s"
      ],
      [
        "f",
        "t"
      ],
      [
        "pl",
        "at"
      ],
      [
        "sy",
        "stem"
      ],
      [
        "bri",
        "dge"
      ],
      [
        "a",
        "ck"
      ],
      [
        "i",
        "st"
      ],
      [
        "s",
        "up"
      ],
      [
        "s",
        "ub"
      ],
      [
        "an",
        "t"
      ],
      [
        "20",
        "26"
      ],
      [
        "wr",
        "ite"
      ],
      [
        "1",
        "6"
      ],
      [
        "f",
        "low"
      ],
      [
        "au",
        "dit"
      ],
      [
        "inte",
        "g"
      ],
      [
        "U",
        "X"
      ],
      [
        "m",
        "et"
      ],
      [
        "r",
        "un"
      ],
      [
        "an",
        "s"
      ],
      [
        "an",
        "al"
      ],
      [
        "he",
        "artbeat"
      ],
      [
        "ag",
        "es"
      ],
      [
        "oc",
        "ap"
      ],
      [
        "ocap",
        "n"
      ],
      [
        "2",
        "3"
      ],
      [
        "C",
        "I"
      ],
      [
        "H",
        "E"
      ],
      [
        "p",
        "ath"
      ],
      [
        "s",
        "hell"
      ],
      [
        "v",
        "2"
      ],
      [
        "de",
        "s"
      ],
      [
        "ver",
        "s"
      ],
      [
        "no",
        "t"
      ],
      [
        "FL",
        "UX"
      ],
      [
        "a",
        "re"
      ],
      [
        "d",
        "ing"
      ],
      [
        "l",
        "y"
      ],
      [
        "le",
        "ase"
      ],
      [
        "ne",
        "w"
      ],
      [
        "O",
        "N"
      ],
      [
        "t",
        "y"
      ],
      [
        "work",
        "flow"
      ],
      [
        "P",
        "h"
      ],
      [
        "R",
        "o"
      ],
      [
        "d",
        "s"
      ],
      [
        "g",
        "ine"
      ],
      [
        "j",
        "e"
      ],
      [
        "at",
        "ive"
      ],
      [
        "syn",
        "c"
      ],
      [
        "la",
        "w"
      ],
      [
        "a",
        "i"
      ],
      [
        "f",
        "in"
      ],
      [
        "f",
        "er"
      ],
      [
        "u",
        "ment"
      ],
      [
        "re",
        "lease"
      ],
      [
        "ic",
        "e"
      ],
      [
        "no",
        "re"
      ],
      [
        "ul",
        "l"
      ],
      [
        "plat",
        "o"
      ],
      [
        "d",
        "ri"
      ],
      [
        "v",
        "0"
      ],
      [
        "at",
        "es"
      ],
      [
        "en",
        "ch"
      ],
      [
        "re",
        "pos"
      ],
      [
        "doc",
        "ument"
      ],
      [
        "ig",
        "nore"
      ],
      [
        "serv",
        "ation"
      ],
      [
        "1",
        "9"
      ],
      [
        "A",
        "P"
      ],
      [
        "b",
        "r"
      ],
      [
        "b",
        "ench"
      ],
      [
        "l",
        "ic"
      ],
      [
        "m",
        "in"
      ],
      [
        "the",
        "ory"
      ],
      [
        "gate",
        "way"
      ],
      [
        "anal",
        "y"
      ],
      [
        "1",
        "8"
      ],
      [
        "4",
        "3"
      ],
      [
        "C",
        "om"
      ],
      [
        "S",
        "t"
      ],
      [
        "c",
        "or"
      ],
      [
        "c",
        "rab"
      ],
      [
        "l",
        "ine"
      ],
      [
        "v",
        "al"
      ],
      [
        "le",
        "te"
      ],
      [
        "ap",
        "p"
      ],
      [
        "iz",
        "ation"
      ],
      [
        "mar",
        "k"
      ],
      [
        "ifi",
        "ed"
      ],
      [
        "F",
        "ix"
      ],
      [
        "G",
        "it"
      ],
      [
        "H",
        "ub"
      ],
      [
        "S",
        "T"
      ],
      [
        "i",
        "es"
      ],
      [
        "u",
        "d"
      ],
      [
        "st",
        "ru"
      ],
      [
        "is",
        "s"
      ],
      [
        "inst",
        "all"
      ],
      [
        "analy",
        "sis"
      ],
      [
        "C",
        "C"
      ],
      [
        "U",
        "p"
      ],
      [
        "z",
        "er"
      ],
      [
        "at",
        "t"
      ],
      [
        "re",
        "write"
      ],
      [
        "se",
        "ssion"
      ],
      [
        "cle",
        "an"
      ],
      [
        "D",
        "e"
      ],
      [
        "en",
        "gine"
      ],
      [
        "com",
        "m"
      ],
      [
        "to",
        "col"
      ],
      [
        "ic",
        "al"
      ],
      [
        "ex",
        "am"
      ],
      [
        "Git",
        "Hub"
      ],
      [
        "F",
        "leet"
      ],
      [
        "h",
        "o"
      ],
      [
        "j",
        "av"
      ],
      [
        "r",
        "ate"
      ],
      [
        "de",
        "v"
      ],
      [
        "as",
        "s"
      ],
      [
        "am",
        "e"
      ],
      [
        "em",
        "ory"
      ],
      [
        "pap",
        "ers"
      ],
      [
        "ifi",
        "cation"
      ],
      [
        "integ",
        "ration"
      ],
      [
        "2",
        "1"
      ],
      [
        "A",
        "R"
      ],
      [
        "S",
        "e"
      ],
      [
        "p",
        "ub"
      ],
      [
        "u",
        "al"
      ],
      [
        "y",
        "th"
      ],
      [
        "st",
        "er"
      ],
      [
        "fi",
        "r"
      ],
      [
        "and",
        "ing"
      ],
      [
        "as",
        "cript"
      ],
      [
        "loc",
        "k"
      ],
      [
        "Up",
        "d"
      ],
      [
        "jav",
        "ascript"
      ],
      [
        "I",
        "N"
      ],
      [
        "U",
        "D"
      ],
      [
        "st",
        "e"
      ],
      [
        "ar",
        "y"
      ],
      [
        "he",
        "d"
      ],
      [
        "pa",
        "ge"
      ],
      [
        "g",
        "h"
      ],
      [
        "con",
        "s"
      ],
      [
        "pro",
        "v"
      ],
      [
        "pa",
        "ce"
      ],
      [
        "res",
        "ul"
      ],
      [
        "A",
        "L"
      ],
      [
        "c",
        "ocapn"
      ],
      [
        "e",
        "st"
      ],
      [
        "l",
        "an"
      ],
      [
        "o",
        "de"
      ],
      [
        "o",
        "ut"
      ],
      [
        "t",
        "im"
      ],
      [
        "is",
        "h"
      ],
      [
        "con",
        "t"
      ],
      [
        "the",
        "sis"
      ],
      [
        "sh",
        "i"
      ],
      [
        "resul",
        "ts"
      ],
      [
        "f",
        "ra"
      ],
      [
        "v",
        "3"
      ],
      [
        "v",
        "is"
      ],
      [
        "it",
        "ion"
      ],
      [
        "ation",
        "s"
      ],
      [
        "il",
        "er"
      ],
      [
        "lo",
        "ad"
      ],
      [
        "th",
        "ro"
      ],
      [
        "comp",
        "lete"
      ],
      [
        "cle",
        "1"
      ],
      [
        "je",
        "ct"
      ],
      [
        "Upd",
        "ate"
      ],
      [
        "C",
        "on"
      ],
      [
        "T",
        "HE"
      ],
      [
        "d",
        "om"
      ],
      [
        "m",
        "emory"
      ],
      [
        "co",
        "de"
      ],
      [
        "po",
        "int"
      ],
      [
        "ti",
        "les"
      ],
      [
        "room",
        "s"
      ],
      [
        "lu",
        "x"
      ],
      [
        "tt",
        "le"
      ],
      [
        "b",
        "in"
      ],
      [
        "g",
        "ro"
      ],
      [
        "s",
        "pl"
      ],
      [
        "ch",
        "an"
      ],
      [
        "ct",
        "or"
      ],
      [
        "work",
        "s"
      ],
      [
        "agent",
        "s"
      ],
      [
        "tra",
        "ck"
      ],
      [
        "git",
        "ignore"
      ],
      [
        "AP",
        "I"
      ],
      [
        "ud",
        "y"
      ],
      [
        "0",
        "1"
      ],
      [
        "0",
        "2"
      ],
      [
        "E",
        "R"
      ],
      [
        "b",
        "y"
      ],
      [
        "c",
        "ur"
      ],
      [
        "f",
        "lux"
      ],
      [
        "i",
        "de"
      ],
      [
        "v",
        "m"
      ],
      [
        "re",
        "qu"
      ],
      [
        "con",
        "servation"
      ],
      [
        "pol",
        "ic"
      ],
      [
        "0",
        "4"
      ],
      [
        "G",
        "P"
      ],
      [
        "I",
        "S"
      ],
      [
        "M",
        "UD"
      ],
      [
        "a",
        "c"
      ],
      [
        "d",
        "er"
      ],
      [
        "e",
        "w"
      ],
      [
        "m",
        "an"
      ],
      [
        "o",
        "pt"
      ],
      [
        "s",
        "c"
      ],
      [
        "de",
        "mo"
      ],
      [
        "de",
        "ep"
      ],
      [
        "ro",
        "ut"
      ],
      [
        "stat",
        "e"
      ],
      [
        "ve",
        "l"
      ],
      [
        "pro",
        "tocol"
      ],
      [
        "ser",
        "t"
      ],
      [
        "lan",
        "gu"
      ],
      [
        "tim",
        "e"
      ],
      [
        "a",
        "ce"
      ],
      [
        "b",
        "ack"
      ],
      [
        "m",
        "ath"
      ],
      [
        "x",
        "t"
      ],
      [
        "st",
        "art"
      ],
      [
        "fi",
        "le"
      ],
      [
        "stra",
        "p"
      ],
      [
        "vi",
        "ew"
      ],
      [
        "ot",
        "strap"
      ],
      [
        "polic",
        "y"
      ],
      [
        "O",
        "ra"
      ],
      [
        "l",
        "ay"
      ],
      [
        "en",
        "co"
      ],
      [
        "te",
        "xt"
      ],
      [
        "lin",
        "es"
      ],
      [
        "Ph",
        "ase"
      ],
      [
        "dom",
        "ain"
      ],
      [
        "C",
        "L"
      ],
      [
        "F",
        "M"
      ],
      [
        "i",
        "v"
      ],
      [
        "m",
        "at"
      ],
      [
        "en",
        "ste"
      ],
      [
        "re",
        "al"
      ],
      [
        "de",
        "x"
      ],
      [
        "is",
        "enste"
      ],
      [
        "ser",
        "ver"
      ],
      [
        "bench",
        "mark"
      ],
      [
        "Ora",
        "cle1"
      ],
      [
        "isenste",
        "in"
      ],
      [
        "0",
        "6"
      ],
      [
        "I",
        "T"
      ],
      [
        "f",
        "ull"
      ],
      [
        "h",
        "er"
      ],
      [
        "l",
        "d"
      ],
      [
        "m",
        "ap"
      ],
      [
        "p",
        "les"
      ],
      [
        "it",
        "ial"
      ],
      [
        "co",
        "ver"
      ],
      [
        "upd",
        "ated"
      ],
      [
        "vers",
        "ion"
      ],
      [
        "2",
        "e"
      ],
      [
        "C",
        "T"
      ],
      [
        "U",
        "T"
      ],
      [
        "e",
        "2e"
      ],
      [
        "m",
        "s"
      ],
      [
        "o",
        "s"
      ],
      [
        "p",
        "us"
      ],
      [
        "r",
        "or"
      ],
      [
        "t",
        "a"
      ],
      [
        "w",
        "as"
      ],
      [
        "at",
        "a"
      ],
      [
        "at",
        "or"
      ],
      [
        "to",
        "ol"
      ],
      [
        "he",
        "l"
      ],
      [
        "ing",
        "s"
      ],
      [
        "wor",
        "ds"
      ],
      [
        "no",
        "w"
      ],
      [
        "mar",
        "ks"
      ],
      [
        "form",
        "al"
      ],
      [
        "St",
        "udy"
      ],
      [
        "cor",
        "rect"
      ],
      [
        "stru",
        "cture"
      ],
      [
        "clean",
        "up"
      ],
      [
        "exam",
        "ples"
      ],
      [
        "pub",
        "l"
      ],
      [
        "fir",
        "st"
      ],
      [
        "E",
        "E"
      ],
      [
        "P",
        "yth"
      ],
      [
        "i",
        "b"
      ],
      [
        "i",
        "le"
      ],
      [
        "n",
        "ight"
      ],
      [
        "u",
        "st"
      ],
      [
        "in",
        "dex"
      ],
      [
        "al",
        "s"
      ],
      [
        "he",
        "ad"
      ],
      [
        "for",
        "ge"
      ],
      [
        "ex",
        "t"
      ],
      [
        "po",
        "st"
      ],
      [
        "li",
        "ve"
      ],
      [
        "ti",
        "le"
      ],
      [
        "act",
        "or"
      ],
      [
        "gen",
        "er"
      ],
      [
        "sup",
        "er"
      ],
      [
        "fer",
        "ence"
      ],
      [
        ")",
        ","
      ],
      [
        "6",
        "4"
      ],
      [
        "M",
        "o"
      ],
      [
        "a",
        "le"
      ],
      [
        "h",
        "ard"
      ],
      [
        "n",
        "ap"
      ],
      [
        "o",
        "b"
      ],
      [
        "r",
        "y"
      ],
      [
        "s",
        "cript"
      ],
      [
        "w",
        "are"
      ],
      [
        "it",
        "er"
      ],
      [
        "le",
        "t"
      ],
      [
        "ri",
        "c"
      ],
      [
        "ed",
        "u"
      ],
      [
        "ol",
        "d"
      ],
      [
        "doc",
        "ker"
      ],
      [
        "pro",
        "of"
      ],
      [
        "int",
        "er"
      ],
      [
        "di",
        "rect"
      ],
      [
        "document",
        "ation"
      ],
      [
        "GP",
        "U"
      ],
      [
        "0",
        "7"
      ],
      [
        "0",
        "8"
      ],
      [
        "2",
        "5"
      ],
      [
        "F",
        "or"
      ],
      [
        "T",
        "O"
      ],
      [
        "c",
        "l"
      ],
      [
        "g",
        "o"
      ],
      [
        "o",
        "us"
      ],
      [
        "p",
        "en"
      ],
      [
        "p",
        "atch"
      ],
      [
        "t",
        "ri"
      ],
      [
        "u",
        "gh"
      ],
      [
        "ic",
        "es"
      ],
      [
        "il",
        "l"
      ],
      [
        "syn",
        "thesis"
      ],
      [
        "wr",
        "it"
      ],
      [
        "De",
        "ep"
      ],
      [
        "0",
        "9"
      ],
      [
        "E",
        "N"
      ],
      [
        "P",
        "R"
      ],
      [
        "P",
        "ro"
      ],
      [
        "e",
        "k"
      ],
      [
        "f",
        "y"
      ],
      [
        "l",
        "anding"
      ],
      [
        "r",
        "al"
      ],
      [
        "er",
        "g"
      ],
      [
        "re",
        "e"
      ],
      [
        "al",
        "ph"
      ],
      [
        "is",
        "m"
      ],
      [
        "ach",
        "e"
      ],
      [
        "ver",
        "ification"
      ],
      [
        "co",
        "re"
      ],
      [
        "bo",
        "otstrap"
      ],
      [
        "wor",
        "ld"
      ],
      [
        "ma",
        "ster"
      ],
      [
        "og",
        "y"
      ],
      [
        "ow",
        "n"
      ],
      [
        "shi",
        "ft"
      ],
      [
        "sert",
        "ation"
      ],
      [
        "alph",
        "a"
      ],
      [
        "C",
        "D"
      ],
      [
        "K",
        "B"
      ],
      [
        "S",
        "S"
      ],
      [
        "o",
        "ver"
      ],
      [
        "u",
        "te"
      ],
      [
        "v",
        "o"
      ],
      [
        "in",
        "ing"
      ],
      [
        "in",
        "ference"
      ],
      [
        "ion",
        "s"
      ],
      [
        "ent",
        "ion"
      ],
      [
        "fi",
        "les"
      ],
      [
        "bu",
        "g"
      ],
      [
        "bo",
        "ttle"
      ],
      [
        "dep",
        "end"
      ],
      [
        "ter",
        "n"
      ],
      [
        "iz",
        "e"
      ],
      [
        "ens",
        "or"
      ],
      [
        "In",
        "itial"
      ],
      [
        "cation",
        "al"
      ],
      [
        "spe",
        "ct"
      ],
      [
        "ant",
        "ic"
      ],
      [
        "Ro",
        "und"
      ],
      [
        "works",
        "pace"
      ],
      [
        "7",
        "3"
      ],
      [
        "b",
        "it"
      ],
      [
        "f",
        "l"
      ],
      [
        "l",
        "f"
      ],
      [
        "m",
        "iss"
      ],
      [
        "s",
        "im"
      ],
      [
        "v",
        "1"
      ],
      [
        "w",
        "ar"
      ],
      [
        "st",
        "ance"
      ],
      [
        "om",
        "y"
      ],
      [
        "se",
        "ction"
      ],
      [
        "oc",
        "law"
      ],
      [
        "il",
        "ity"
      ],
      [
        "as",
        "h"
      ],
      [
        "ag",
        "ing"
      ],
      [
        "comp",
        "iler"
      ],
      [
        "ref",
        "er"
      ],
      [
        "tr",
        "ans"
      ],
      [
        "sup",
        "port"
      ],
      [
        "des",
        "ign"
      ],
      [
        "dri",
        "ver"
      ],
      [
        "requ",
        "est"
      ],
      [
        "edu",
        "cational"
      ],
      [
        "2",
        "7"
      ],
      [
        "2",
        "8"
      ],
      [
        "4",
        "8"
      ],
      [
        "A",
        "I"
      ],
      [
        "C",
        "l"
      ],
      [
        "N",
        "ight"
      ],
      [
        "a",
        "ction"
      ],
      [
        "b",
        "ro"
      ],
      [
        "i",
        "p"
      ],
      [
        "i",
        "r"
      ],
      [
        "i",
        "re"
      ],
      [
        "o",
        "ur"
      ],
      [
        "t",
        "w"
      ],
      [
        "on",
        "omy"
      ],
      [
        "re",
        "po"
      ],
      [
        "re",
        "pl"
      ],
      [
        "an",
        "g"
      ],
      [
        "ro",
        "se"
      ],
      [
        "lo",
        "y"
      ],
      [
        "lo",
        "op"
      ],
      [
        "bu",
        "t"
      ],
      [
        "li",
        "st"
      ],
      [
        "id",
        "ation"
      ],
      [
        "lin",
        "ks"
      ],
      [
        "ref",
        "actor"
      ],
      [
        "experiment",
        "s"
      ],
      [
        "was",
        "m"
      ],
      [
        "4",
        "7"
      ],
      [
        "C",
        "O"
      ],
      [
        "C",
        "h"
      ],
      [
        "E",
        "isenstein"
      ],
      [
        "b",
        "lock"
      ],
      [
        "c",
        "ess"
      ],
      [
        "k",
        "ing"
      ],
      [
        "m",
        "ed"
      ],
      [
        "u",
        "e"
      ],
      [
        "w",
        "ard"
      ],
      [
        "in",
        "to"
      ],
      [
        "er",
        "ror"
      ],
      [
        "an",
        "ch"
      ],
      [
        "un",
        "ified"
      ],
      [
        "mo",
        "du"
      ],
      [
        "no",
        "de"
      ],
      [
        "ith",
        "ub"
      ],
      [
        "pe",
        "line"
      ],
      [
        "zer",
        "o"
      ],
      [
        "comm",
        "and"
      ],
      [
        "thro",
        "ugh"
      ],
      [
        "6",
        "9"
      ],
      [
        ":",
        ":"
      ],
      [
        "C",
        "1"
      ],
      [
        "D",
        "O"
      ],
      [
        "H",
        "N"
      ],
      [
        "I",
        "P"
      ],
      [
        "J",
        "C1"
      ],
      [
        "c",
        "es"
      ],
      [
        "e",
        "co"
      ],
      [
        "g",
        "ra"
      ],
      [
        "g",
        "ithub"
      ],
      [
        "m",
        "on"
      ],
      [
        "o",
        "use"
      ],
      [
        "s",
        "nap"
      ],
      [
        "ar",
        "i"
      ],
      [
        "de",
        "ad"
      ],
      [
        "us",
        "h"
      ],
      [
        "au",
        "l"
      ],
      [
        "pl",
        "ay"
      ],
      [
        "comp",
        "re"
      ],
      [
        "tra",
        "p"
      ],
      [
        "pi",
        "peline"
      ],
      [
        "CC",
        "C"
      ],
      [
        "att",
        "ention"
      ],
      [
        "spl",
        "ine"
      ],
      [
        "opt",
        "im"
      ],
      [
        "enco",
        "ding"
      ],
      [
        "eco",
        "system"
      ],
      [
        "2",
        "9"
      ],
      [
        "2",
        "I"
      ],
      [
        "A",
        "N"
      ],
      [
        "G",
        "E"
      ],
      [
        "I",
        "C"
      ],
      [
        "I",
        "2I"
      ],
      [
        "M",
        "erge"
      ],
      [
        "a",
        "f"
      ],
      [
        "a",
        "il"
      ],
      [
        "b",
        "ase"
      ],
      [
        "m",
        "ess"
      ],
      [
        "n",
        "et"
      ],
      [
        "p",
        "r"
      ],
      [
        "p",
        "in"
      ],
      [
        "v",
        "s"
      ],
      [
        "y",
        "n"
      ],
      [
        "in",
        "s"
      ],
      [
        "re",
        "am"
      ],
      [
        "or",
        "g"
      ],
      [
        "de",
        "te"
      ],
      [
        "ge",
        "t"
      ],
      [
        "con",
        "ne"
      ],
      [
        "mo",
        "re"
      ],
      [
        "ul",
        "ti"
      ],
      [
        "per",
        "s"
      ],
      [
        "di",
        "ag"
      ],
      [
        "ke",
        "y"
      ],
      [
        "lin",
        "k"
      ],
      [
        "model",
        "s"
      ],
      [
        "one",
        "st"
      ],
      [
        "cr",
        "ate"
      ],
      [
        "cli",
        "p"
      ],
      [
        "dis",
        "sertation"
      ],
      [
        "pack",
        "age"
      ],
      [
        "CL",
        "I"
      ],
      [
        "UT",
        "C"
      ],
      [
        "Pyth",
        "on"
      ],
      [
        "9",
        "5"
      ],
      [
        "H",
        "e"
      ],
      [
        "I",
        "D"
      ],
      [
        "L",
        "L"
      ],
      [
        "S",
        "up"
      ],
      [
        "c",
        "is"
      ],
      [
        "d",
        "ata"
      ],
      [
        "e",
        "v"
      ],
      [
        "f",
        "ore"
      ],
      [
        "h",
        "ol"
      ],
      [
        "k",
        "en"
      ],
      [
        "t",
        "able"
      ],
      [
        "er",
        "In"
      ],
      [
        "en",
        "cy"
      ],
      [
        "ch",
        "er"
      ],
      [
        "or",
        "d"
      ],
      [
        "ar",
        "go"
      ],
      [
        "se",
        "m"
      ],
      [
        "se",
        "t"
      ],
      [
        "au",
        "de"
      ],
      [
        "ic",
        "s"
      ],
      [
        "the",
        "ore"
      ],
      [
        "ver",
        "se"
      ],
      [
        "pro",
        "ject"
      ],
      [
        "th",
        "ouse"
      ],
      [
        "upd",
        "ates"
      ],
      [
        "Ad",
        "ded"
      ],
      [
        "dep",
        "loy"
      ],
      [
        "igh",
        "thouse"
      ],
      [
        "wh",
        "ite"
      ],
      [
        "loc",
        "al"
      ],
      [
        "pos",
        "ition"
      ],
      [
        "pack",
        "aging"
      ],
      [
        "zer",
        "oclaw"
      ],
      [
        "Se",
        "ed"
      ],
      [
        "langu",
        "age"
      ],
      [
        "her",
        "mit"
      ],
      [
        "pus",
        "hed"
      ],
      [
        "Cl",
        "aude"
      ],
      [
        "Sup",
        "erIn"
      ],
      [
        "SuperIn",
        "stance"
      ],
      [
        "6",
        "7"
      ],
      [
        "8",
        "3"
      ],
      [
        "D",
        "oc"
      ],
      [
        "J",
        "S"
      ],
      [
        "R",
        "ust"
      ],
      [
        "V",
        "M"
      ],
      [
        "b",
        "i"
      ],
      [
        "c",
        "ap"
      ],
      [
        "c",
        "ache"
      ],
      [
        "d",
        "en"
      ],
      [
        "d",
        "ent"
      ],
      [
        "g",
        "ap"
      ],
      [
        "h",
        "onest"
      ],
      [
        "i",
        "o"
      ],
      [
        "k",
        "ill"
      ],
      [
        "n",
        "ame"
      ],
      [
        "p",
        "on"
      ],
      [
        "p",
        "ur"
      ],
      [
        "p",
        "ass"
      ],
      [
        "x",
        "y"
      ],
      [
        "st",
        "ore"
      ],
      [
        "re",
        "g"
      ],
      [
        "ch",
        "ap"
      ],
      [
        "le",
        "d"
      ],
      [
        "se",
        "ed"
      ],
      [
        "se",
        "lf"
      ],
      [
        "fix",
        "es"
      ],
      [
        "ap",
        "er"
      ],
      [
        "up",
        "lic"
      ],
      [
        "po",
        "se"
      ],
      [
        "int",
        "ent"
      ],
      [
        "ple",
        "ment"
      ],
      [
        "workflow",
        "s"
      ],
      [
        "ho",
        "st"
      ],
      [
        "prov",
        "id"
      ],
      [
        "track",
        "ing"
      ],
      [
        "hel",
        "m"
      ],
      [
        "aul",
        "t"
      ],
      [
        "clip",
        "py"
      ],
      [
        "4",
        "4"
      ],
      [
        "C",
        "H"
      ],
      [
        "C",
        "ode"
      ],
      [
        "I",
        "ON"
      ],
      [
        "O",
        "R"
      ],
      [
        "T",
        "L"
      ],
      [
        "a",
        "ve"
      ],
      [
        "a",
        "ctions"
      ],
      [
        "c",
        "la"
      ],
      [
        "d",
        "o"
      ],
      [
        "d",
        "uplic"
      ],
      [
        "g",
        "es"
      ],
      [
        "m",
        "ur"
      ],
      [
        "o",
        "und"
      ],
      [
        "r",
        "and"
      ],
      [
        "s",
        "u"
      ],
      [
        "s",
        "ign"
      ],
      [
        "t",
        "ag"
      ],
      [
        "w",
        "s"
      ],
      [
        "at",
        "tern"
      ],
      [
        "re",
        "view"
      ],
      [
        "de",
        "com"
      ],
      [
        "he",
        "al"
      ],
      [
        "he",
        "el"
      ],
      [
        "ad",
        "map"
      ],
      [
        "feat",
        "ure"
      ],
      [
        "ve",
        "ctor"
      ],
      [
        "th",
        "er"
      ],
      [
        "ut",
        "ion"
      ],
      [
        "ur",
        "al"
      ],
      [
        "ti",
        "er"
      ],
      [
        "tra",
        "ining"
      ],
      [
        "ess",
        "ion"
      ],
      [
        "ph",
        "y"
      ],
      [
        "res",
        "pon"
      ],
      [
        "pol",
        "y"
      ],
      [
        "wh",
        "en"
      ],
      [
        "cy",
        "cle"
      ],
      [
        "fin",
        "al"
      ],
      [
        "min",
        "i"
      ],
      [
        "bin",
        "d"
      ],
      [
        "cla",
        "im"
      ],
      [
        "3",
        "2"
      ],
      [
        "4",
        "9"
      ],
      [
        "7",
        "8"
      ],
      [
        "C",
        "ase"
      ],
      [
        "O",
        "pen"
      ],
      [
        "R",
        "O"
      ],
      [
        "a",
        "st"
      ],
      [
        "a",
        "cross"
      ],
      [
        "m",
        "ulti"
      ],
      [
        "n",
        "ing"
      ],
      [
        "n",
        "ess"
      ],
      [
        "p",
        "ut"
      ],
      [
        "p",
        "ans"
      ],
      [
        "t",
        "al"
      ],
      [
        "st",
        "ream"
      ],
      [
        "om",
        "e"
      ],
      [
        "it",
        "or"
      ],
      [
        "ch",
        "ain"
      ],
      [
        "le",
        "dge"
      ],
      [
        "de",
        "f"
      ],
      [
        "se",
        "s"
      ],
      [
        "ct",
        "ive"
      ],
      [
        "ri",
        "but"
      ],
      [
        "ad",
        "ded"
      ],
      [
        "pro",
        "ve"
      ],
      [
        "im",
        "age"
      ],
      [
        "im",
        "plement"
      ],
      [
        "10",
        "8"
      ],
      [
        "ne",
        "l"
      ],
      [
        "serv",
        "ices"
      ],
      [
        "cr",
        "ates"
      ],
      [
        "read",
        "me"
      ],
      [
        "path",
        "s"
      ],
      [
        "br",
        "anch"
      ],
      [
        "AR",
        "T"
      ],
      [
        "gro",
        "und"
      ],
      [
        "rout",
        "ing"
      ],
      [
        "now",
        "ledge"
      ],
      [
        "tw",
        "o"
      ],
      [
        "diag",
        "ra"
      ],
      [
        "Case",
        "y"
      ],
      [
        "3",
        "5"
      ],
      [
        "3",
        "8"
      ],
      [
        "6",
        "8"
      ],
      [
        "7",
        "9"
      ],
      [
        "A",
        "S"
      ],
      [
        "A",
        "ctions"
      ],
      [
        "E",
        "C"
      ],
      [
        "S",
        "ession"
      ],
      [
        "_",
        "s"
      ],
      [
        "c",
        "an"
      ],
      [
        "e",
        "c"
      ],
      [
        "e",
        "ver"
      ],
      [
        "i",
        "se"
      ],
      [
        "m",
        "atch"
      ],
      [
        "p",
        "ri"
      ],
      [
        "p",
        "attern"
      ],
      [
        "s",
        "we"
      ],
      [
        "v",
        "4"
      ],
      [
        "v",
        "ari"
      ],
      [
        "at",
        "al"
      ],
      [
        "er",
        "ti"
      ],
      [
        "re",
        "sh"
      ],
      [
        "al",
        "ity"
      ],
      [
        "to",
        "tal"
      ],
      [
        "be",
        "fore"
      ],
      [
        "ol",
        "ogy"
      ],
      [
        "pro",
        "xy"
      ],
      [
        "th",
        "at"
      ],
      [
        "th",
        "in"
      ],
      [
        "ex",
        "pl"
      ],
      [
        "am",
        "es"
      ],
      [
        "ul",
        "ation"
      ],
      [
        "ess",
        "ay"
      ],
      [
        "act",
        "ive"
      ],
      [
        "iz",
        "ed"
      ],
      [
        "res",
        "ol"
      ],
      [
        "vi",
        "a"
      ],
      [
        "cli",
        "ent"
      ],
      [
        "spe",
        "c"
      ],
      [
        "ty",
        "p"
      ],
      [
        "Com",
        "p"
      ],
      [
        "att",
        "ice"
      ],
      [
        "Se",
        "ek"
      ],
      [
        "tool",
        "s"
      ],
      [
        "ib",
        "le"
      ],
      [
        "For",
        "ge"
      ],
      [
        "Deep",
        "Seek"
      ],
      [
        "spect",
        "ral"
      ],
      [
        "miss",
        "ing"
      ],
      [
        "war",
        "m"
      ],
      [
        "cis",
        "ion"
      ],
      [
        "ord",
        "in"
      ],
      [
        "duplic",
        "ate"
      ],
      [
        "bind",
        "gen"
      ],
      [
        "claim",
        "s"
      ],
      [
        "(",
        ")"
      ],
      [
        "/",
        "{"
      ],
      [
        "5",
        "0"
      ],
      [
        "A",
        "r"
      ],
      [
        "C",
        "ocapn"
      ],
      [
        "C",
        "ON"
      ],
      [
        "D",
        "is"
      ],
      [
        "F",
        "I"
      ],
      [
        "b",
        "ers"
      ],
      [
        "g",
        "lu"
      ],
      [
        "h",
        "y"
      ],
      [
        "l",
        "ighthouse"
      ],
      [
        "l",
        "attice"
      ],
      [
        "m",
        "app"
      ],
      [
        "n",
        "ar"
      ],
      [
        "n",
        "um"
      ],
      [
        "n",
        "ative"
      ],
      [
        "s",
        "ch"
      ],
      [
        "s",
        "ur"
      ],
      [
        "t",
        "ar"
      ],
      [
        "t",
        "ur"
      ],
      [
        "v",
        "ed"
      ],
      [
        "er",
        "e"
      ],
      [
        "en",
        "h"
      ],
      [
        "st",
        "ack"
      ],
      [
        "it",
        "ch"
      ],
      [
        "ro",
        "ws"
      ],
      [
        "is",
        "hed"
      ],
      [
        "ig",
        "ence"
      ],
      [
        "ver",
        "g"
      ],
      [
        "ver",
        "ified"
      ],
      [
        "pro",
        "du"
      ],
      [
        "pro",
        "file"
      ],
      [
        "co",
        "ordin"
      ],
      [
        "comp",
        "ute"
      ],
      [
        "di",
        "f"
      ],
      [
        "ll",
        "igence"
      ],
      [
        "act",
        "ual"
      ],
      [
        "end",
        "point"
      ],
      [
        "inst",
        "ance"
      ],
      [
        "av",
        "ig"
      ],
      [
        "cre",
        "dent"
      ],
      [
        "sub",
        "agent"
      ],
      [
        "ding",
        "s"
      ],
      [
        "dri",
        "ft"
      ],
      [
        "cons",
        "ol"
      ],
      [
        "langu",
        "ages"
      ],
      [
        "lay",
        "er"
      ],
      [
        "cover",
        "y"
      ],
      [
        "formal",
        "ism"
      ],
      [
        "publ",
        "ish"
      ],
      [
        "repl",
        "ace"
      ],
      [
        "den",
        "y"
      ],
      [
        "decom",
        "position"
      ],
      [
        "glu",
        "e"
      ],
      [
        "credent",
        "ial"
      ],
      [
        "3",
        "6"
      ],
      [
        "9",
        "9"
      ],
      [
        "D",
        "E"
      ],
      [
        "E",
        "D"
      ],
      [
        "E",
        "n"
      ],
      [
        "P",
        "en"
      ],
      [
        "P",
        "aper"
      ],
      [
        "S",
        "hell"
      ],
      [
        "T",
        "T"
      ],
      [
        "T",
        "h"
      ],
      [
        "T",
        "ile"
      ],
      [
        "U",
        "R"
      ],
      [
        "W",
        "IP"
      ],
      [
        "b",
        "ed"
      ],
      [
        "c",
        "ed"
      ],
      [
        "e",
        "ad"
      ],
      [
        "g",
        "re"
      ],
      [
        "i",
        "fy"
      ],
      [
        "k",
        "nowledge"
      ],
      [
        "p",
        "un"
      ],
      [
        "s",
        "um"
      ],
      [
        "t",
        "ut"
      ],
      [
        "u",
        "es"
      ],
      [
        "v",
        "ent"
      ],
      [
        "v",
        "ite"
      ],
      [
        "}",
        "/"
      ],
      [
        "en",
        "se"
      ],
      [
        "on",
        "ly"
      ],
      [
        "le",
        "vel"
      ],
      [
        "al",
        "low"
      ],
      [
        "ro",
        "admap"
      ],
      [
        "be",
        "l"
      ],
      [
        "ic",
        "k"
      ],
      [
        "for",
        "ward"
      ],
      [
        "con",
        "fi"
      ],
      [
        "il",
        "ation"
      ],
      [
        "un",
        "t"
      ],
      [
        "pro",
        "cess"
      ],
      [
        "im",
        "prove"
      ],
      [
        "comp",
        "at"
      ],
      [
        "comp",
        "ut"
      ],
      [
        "di",
        "st"
      ],
      [
        "ke",
        "ep"
      ],
      [
        "ph",
        "ase"
      ],
      [
        "ens",
        "hell"
      ],
      [
        "inst",
        "ead"
      ],
      [
        "par",
        "am"
      ],
      [
        "ain",
        "er"
      ],
      [
        "run",
        "time"
      ],
      [
        "ty",
        "pe"
      ],
      [
        "Ph",
        "i"
      ],
      [
        "lic",
        "ense"
      ],
      [
        "prov",
        "en"
      ],
      [
        "fra",
        "me"
      ],
      [
        "rout",
        "er"
      ],
      [
        "publ",
        "ished"
      ],
      [
        "pin",
        "cher"
      ],
      [
        "Doc",
        "ker"
      ],
      [
        "pur",
        "ple"
      ],
      [
        "heal",
        "th"
      ],
      [
        "swe",
        "ep"
      ],
      [
        "typ",
        "es"
      ],
      [
        "Pen",
        "rose"
      ],
      [
        "tut",
        "or"
      ],
      [
        "4",
        "6"
      ],
      [
        "5",
        "5"
      ],
      [
        "5",
        "7"
      ],
      [
        "B",
        "o"
      ],
      [
        "G",
        "ro"
      ],
      [
        "L",
        "anding"
      ],
      [
        "M",
        "L"
      ],
      [
        "O",
        "L"
      ],
      [
        "P",
        "o"
      ],
      [
        "S",
        "P"
      ],
      [
        "S",
        "em"
      ],
      [
        "b",
        "re"
      ],
      [
        "c",
        "al"
      ],
      [
        "e",
        "f"
      ],
      [
        "e",
        "per"
      ],
      [
        "f",
        "m"
      ],
      [
        "h",
        "and"
      ],
      [
        "i",
        "er"
      ],
      [
        "j",
        "o"
      ],
      [
        "l",
        "er"
      ],
      [
        "p",
        "m"
      ],
      [
        "p",
        "an"
      ],
      [
        "r",
        "on"
      ],
      [
        "r",
        "ad"
      ],
      [
        "s",
        "a"
      ],
      [
        "st",
        "rate"
      ],
      [
        "om",
        "b"
      ],
      [
        "or",
        "a"
      ],
      [
        "be",
        "ta"
      ],
      [
        "ment",
        "s"
      ],
      [
        "con",
        "text"
      ],
      [
        "as",
        "k"
      ],
      [
        "im",
        "ages"
      ],
      [
        "pl",
        "an"
      ],
      [
        "no",
        "vel"
      ],
      [
        "li",
        "br"
      ],
      [
        "em",
        "bed"
      ],
      [
        "ci",
        "ous"
      ],
      [
        "sh",
        "ad"
      ],
      [
        "sh",
        "ow"
      ],
      [
        "ab",
        "ility"
      ],
      [
        "pre",
        "di"
      ],
      [
        "ma",
        "ke"
      ],
      [
        "ens",
        "ion"
      ],
      [
        "ens",
        "us"
      ],
      [
        "op",
        "enshell"
      ],
      [
        "cre",
        "ate"
      ],
      [
        "cr",
        "it"
      ],
      [
        "el",
        "d"
      ],
      [
        "inte",
        "lligence"
      ],
      [
        "vis",
        "or"
      ],
      [
        "super",
        "instance"
      ],
      [
        "ob",
        "ject"
      ],
      [
        "iter",
        "ation"
      ],
      [
        "erg",
        "y"
      ],
      [
        "modu",
        "les"
      ],
      [
        "org",
        "an"
      ],
      [
        "dete",
        "ction"
      ],
      [
        "white",
        "paper"
      ],
      [
        "atal",
        "og"
      ],
      [
        "thin",
        "king"
      ],
      [
        "Comp",
        "iler"
      ],
      [
        "num",
        "bers"
      ],
      [
        "Sem",
        "antic"
      ],
      [
        "3",
        "7"
      ],
      [
        "4",
        "2"
      ],
      [
        "6",
        "0"
      ],
      [
        "8",
        "0"
      ],
      [
        "9",
        "7"
      ],
      [
        "A",
        "ut"
      ],
      [
        "E",
        "CT"
      ],
      [
        "H",
        "TT"
      ],
      [
        "K",
        "e"
      ],
      [
        "O",
        "S"
      ],
      [
        "P",
        "y"
      ],
      [
        "S",
        "pl"
      ],
      [
        "a",
        "bo"
      ],
      [
        "c",
        "lu"
      ],
      [
        "d",
        "k"
      ],
      [
        "d",
        "im"
      ],
      [
        "d",
        "man"
      ],
      [
        "m",
        "er"
      ],
      [
        "n",
        "ext"
      ],
      [
        "p",
        "ull"
      ],
      [
        "s",
        "ing"
      ],
      [
        "t",
        "en"
      ],
      [
        "u",
        "di"
      ],
      [
        "w",
        "heel"
      ],
      [
        "al",
        "le"
      ],
      [
        "ar",
        "ies"
      ],
      [
        "se",
        "par"
      ],
      [
        "he",
        "mat"
      ],
      [
        "ct",
        "s"
      ],
      [
        "au",
        "th"
      ],
      [
        "con",
        "fir"
      ],
      [
        "ce",
        "pt"
      ],
      [
        "th",
        "ree"
      ],
      [
        "ex",
        "tra"
      ],
      [
        "comp",
        "ile"
      ],
      [
        "comp",
        "ilation"
      ],
      [
        "di",
        "r"
      ],
      [
        "id",
        "ent"
      ],
      [
        "ne",
        "g"
      ],
      [
        "sh",
        "ot"
      ],
      [
        "mar",
        "y"
      ],
      [
        "qu",
        "ick"
      ],
      [
        "pol",
        "lin"
      ],
      [
        "pol",
        "ish"
      ],
      [
        "serv",
        "ice"
      ],
      [
        "log",
        "g"
      ],
      [
        "met",
        "ric"
      ],
      [
        "Ro",
        "om"
      ],
      [
        "exam",
        "ple"
      ],
      [
        "pub",
        "lic"
      ],
      [
        "cons",
        "cious"
      ],
      [
        "shi",
        "p"
      ],
      [
        "thro",
        "ttle"
      ],
      [
        "chan",
        "ges"
      ],
      [
        "super",
        "visor"
      ],
      [
        "Mo",
        "del"
      ],
      [
        "hard",
        "en"
      ],
      [
        "refer",
        "ence"
      ],
      [
        "command",
        "s"
      ],
      [
        "snap",
        "_"
      ],
      [
        "compre",
        "ssion"
      ],
      [
        "mess",
        "age"
      ],
      [
        "deploy",
        "ment"
      ],
      [
        "provid",
        "ers"
      ],
      [
        "respon",
        "se"
      ],
      [
        "poly",
        "formalism"
      ],
      [
        "verg",
        "ence"
      ],
      [
        "consol",
        "idation"
      ],
      [
        "confi",
        "g"
      ],
      [
        "tutor",
        "ial"
      ],
      [
        "libr",
        "ary"
      ],
      [
        "Aut",
        "om"
      ],
      [
        "HTT",
        "P"
      ],
      [
        "-",
        "-"
      ],
      [
        "-",
        ">"
      ],
      [
        "3",
        "1"
      ],
      [
        "5",
        "2"
      ],
      [
        "7",
        "6"
      ],
      [
        "A",
        "l"
      ],
      [
        "A",
        "p"
      ],
      [
        "B",
        "rand"
      ],
      [
        "E",
        "x"
      ],
      [
        "G",
        "L"
      ],
      [
        "M",
        "P"
      ],
      [
        "M",
        "a"
      ],
      [
        "N",
        "e"
      ],
      [
        "N",
        "ar"
      ],
      [
        "T",
        "r"
      ],
      [
        "_",
        "tests"
      ],
      [
        "b",
        "and"
      ],
      [
        "c",
        "ent"
      ],
      [
        "c",
        "argo"
      ],
      [
        "e",
        "le"
      ],
      [
        "f",
        "un"
      ],
      [
        "f",
        "li"
      ],
      [
        "f",
        "act"
      ],
      [
        "f",
        "als"
      ],
      [
        "m",
        "ach"
      ],
      [
        "m",
        "id"
      ],
      [
        "n",
        "er"
      ],
      [
        "n",
        "ames"
      ],
      [
        "p",
        "ed"
      ],
      [
        "p",
        "rom"
      ],
      [
        "s",
        "m"
      ],
      [
        "s",
        "o"
      ],
      [
        "s",
        "w"
      ],
      [
        "t",
        "ers"
      ],
      [
        "t",
        "ensor"
      ],
      [
        "at",
        "ure"
      ],
      [
        "st",
        "r"
      ],
      [
        "st",
        "or"
      ],
      [
        "re",
        "verse"
      ],
      [
        "re",
        "store"
      ],
      [
        "or",
        "ig"
      ],
      [
        "ar",
        "ti"
      ],
      [
        "ro",
        "ot"
      ],
      [
        "fi",
        "c"
      ],
      [
        "ri",
        "g"
      ],
      [
        "te",
        "m"
      ],
      [
        "as",
        "ure"
      ],
      [
        "co",
        "unt"
      ],
      [
        "bo",
        "und"
      ],
      [
        "wor",
        "d"
      ],
      [
        "10",
        "0"
      ],
      [
        "iz",
        "er"
      ],
      [
        "la",
        "bel"
      ],
      [
        "op",
        "en"
      ],
      [
        "gu",
        "ide"
      ],
      [
        "wh",
        "at"
      ],
      [
        "check",
        "s"
      ],
      [
        "form",
        "at"
      ],
      [
        "dis",
        "able"
      ],
      [
        "me",
        "chan"
      ],
      [
        "sub",
        "mit"
      ],
      [
        "val",
        "id"
      ],
      [
        "Con",
        "servation"
      ],
      [
        "domain",
        "s"
      ],
      [
        "mat",
        "hemat"
      ],
      [
        "script",
        "s"
      ],
      [
        "TO",
        "DO"
      ],
      [
        "cl",
        "ass"
      ],
      [
        "patch",
        "es"
      ],
      [
        "refer",
        "en"
      ],
      [
        "bro",
        "ken"
      ],
      [
        "optim",
        "ization"
      ],
      [
        "pers",
        "ist"
      ],
      [
        "sem",
        "antic"
      ],
      [
        "sign",
        "al"
      ],
      [
        "diagra",
        "ms"
      ],
      [
        "frame",
        "work"
      ],
      [
        "shad",
        "ow"
      ],
      [
        "confir",
        "med"
      ],
      [
        "pollin",
        "ation"
      ],
      [
        "Autom",
        "erge"
      ],
      [
        "Nar",
        "rows"
      ],
      [
        "orig",
        "in"
      ],
      [
        "3",
        "0"
      ],
      [
        "3",
        "9"
      ],
      [
        "5",
        "12"
      ],
      [
        "6",
        "1"
      ],
      [
        "7",
        "7"
      ],
      [
        "8",
        "8"
      ],
      [
        "A",
        "g"
      ],
      [
        "C",
        "o"
      ],
      [
        "C",
        "law"
      ],
      [
        "I",
        "m"
      ],
      [
        "Q",
        "F"
      ],
      [
        "R",
        "F"
      ],
      [
        "T",
        "QF"
      ],
      [
        "c",
        "erti"
      ],
      [
        "d",
        "ra"
      ],
      [
        "d",
        "one"
      ],
      [
        "d",
        "own"
      ],
      [
        "e",
        "mit"
      ],
      [
        "g",
        "er"
      ],
      [
        "h",
        "tt"
      ],
      [
        "k",
        "i"
      ],
      [
        "k",
        "u"
      ],
      [
        "m",
        "erge"
      ],
      [
        "m",
        "ix"
      ],
      [
        "n",
        "avig"
      ],
      [
        "r",
        "ative"
      ],
      [
        "en",
        "v"
      ],
      [
        "st",
        "and"
      ],
      [
        "st",
        "ep"
      ],
      [
        "le",
        "ction"
      ],
      [
        "al",
        "ign"
      ],
      [
        "ro",
        "t"
      ],
      [
        "he",
        "x"
      ],
      [
        "ct",
        "ed"
      ],
      [
        "fi",
        "eld"
      ],
      [
        "oc",
        "k"
      ],
      [
        "ad",
        "ig"
      ],
      [
        "ra",
        "p"
      ],
      [
        "fix",
        "ed"
      ],
      [
        "ic",
        "ation"
      ],
      [
        "ve",
        "lo"
      ],
      [
        "up",
        "load"
      ],
      [
        "as",
        "se"
      ],
      [
        "ig",
        "en"
      ],
      [
        "th",
        "on"
      ],
      [
        "arch",
        "ive"
      ],
      [
        "ut",
        "ure"
      ],
      [
        "ul",
        "ar"
      ],
      [
        "em",
        "erg"
      ],
      [
        "ser",
        "ve"
      ],
      [
        "all",
        "y"
      ],
      [
        "pre",
        "cision"
      ],
      [
        "py",
        "thon"
      ],
      [
        "ma",
        "id"
      ],
      [
        "ens",
        "ive"
      ],
      [
        "par",
        "k"
      ],
      [
        "par",
        "adig"
      ],
      [
        "cre",
        "ative"
      ],
      [
        "ple",
        "te"
      ],
      [
        "wh",
        "y"
      ],
      [
        "loc",
        "ks"
      ],
      [
        "read",
        "y"
      ],
      [
        "spe",
        "ci"
      ],
      [
        "we",
        "b"
      ],
      [
        "met",
        "a"
      ],
      [
        "met",
        "ho"
      ],
      [
        "je",
        "ction"
      ],
      [
        "Com",
        "plete"
      ],
      [
        "val",
        "idation"
      ],
      [
        "cont",
        "ainer"
      ],
      [
        "cur",
        "ity"
      ],
      [
        "requ",
        "ire"
      ],
      [
        "sc",
        "ale"
      ],
      [
        "ta",
        "x"
      ],
      [
        "head",
        "ers"
      ],
      [
        "writ",
        "ings"
      ],
      [
        "depend",
        "ent"
      ],
      [
        "fl",
        "ush"
      ],
      [
        "trans",
        "l"
      ],
      [
        "conne",
        "ction"
      ],
      [
        "hol",
        "onomy"
      ],
      [
        "packaging",
        "_tests"
      ],
      [
        "bi",
        "an"
      ],
      [
        "kill",
        "er"
      ],
      [
        "reg",
        "ist"
      ],
      [
        "chap",
        "ters"
      ],
      [
        "def",
        "ault"
      ],
      [
        "essay",
        "s"
      ],
      [
        "Forge",
        "master"
      ],
      [
        "nar",
        "rative"
      ],
      [
        "fm",
        "t"
      ],
      [
        "arti",
        "fact"
      ],
      [
        "htt",
        "p"
      ],
      [
        "emerg",
        "ence"
      ],
      [
        "/",
        "."
      ],
      [
        "1",
        "10"
      ],
      [
        "4",
        "0"
      ],
      [
        "5",
        "8"
      ],
      [
        "8",
        "6"
      ],
      [
        "A",
        "V"
      ],
      [
        "A",
        "gen"
      ],
      [
        "C",
        "V"
      ],
      [
        "C",
        "ross"
      ],
      [
        "D",
        "S"
      ],
      [
        "O",
        "P"
      ],
      [
        "S",
        "im"
      ],
      [
        "U",
        "n"
      ],
      [
        "a",
        "k"
      ],
      [
        "b",
        "bian"
      ],
      [
        "d",
        "ro"
      ],
      [
        "d",
        "ay"
      ],
      [
        "e",
        "ar"
      ],
      [
        "e",
        "isenstein"
      ],
      [
        "f",
        "ace"
      ],
      [
        "f",
        "ound"
      ],
      [
        "g",
        "lo"
      ],
      [
        "g",
        "ame"
      ],
      [
        "h",
        "or"
      ],
      [
        "h",
        "ensive"
      ],
      [
        "k",
        "ip"
      ],
      [
        "l",
        "ing"
      ],
      [
        "n",
        "on"
      ],
      [
        "p",
        "u"
      ],
      [
        "s",
        "or"
      ],
      [
        "s",
        "ome"
      ],
      [
        "s",
        "warm"
      ],
      [
        "s",
        "dk"
      ],
      [
        "t",
        "tier"
      ],
      [
        "v",
        "es"
      ],
      [
        "y",
        "le"
      ],
      [
        "in",
        "it"
      ],
      [
        "in",
        "ci"
      ],
      [
        "st",
        "yle"
      ],
      [
        "re",
        "port"
      ],
      [
        "it",
        "s"
      ],
      [
        "le",
        "ar"
      ],
      [
        "le",
        "ctive"
      ],
      [
        "al",
        "one"
      ],
      [
        "ar",
        "k"
      ],
      [
        "de",
        "velo"
      ],
      [
        "se",
        "c"
      ],
      [
        "se",
        "ctions"
      ],
      [
        "fi",
        "l"
      ],
      [
        "ge",
        "ts"
      ],
      [
        "be",
        "t"
      ],
      [
        "ap",
        "pl"
      ],
      [
        "ic",
        "ro"
      ],
      [
        "ol",
        "ution"
      ],
      [
        "mo",
        "ve"
      ],
      [
        "ex",
        "ist"
      ],
      [
        "bo",
        "ard"
      ],
      [
        "AT",
        "ION"
      ],
      [
        "am",
        "a"
      ],
      [
        "ci",
        "d"
      ],
      [
        "di",
        "ment"
      ],
      [
        "di",
        "ve"
      ],
      [
        "ore",
        "an"
      ],
      [
        "tom",
        "l"
      ],
      [
        "ab",
        "stra"
      ],
      [
        "pre",
        "ad"
      ],
      [
        "ke",
        "eper"
      ],
      [
        "par",
        "alle"
      ],
      [
        "du",
        "al"
      ],
      [
        "gu",
        "ard"
      ],
      [
        "wh",
        "ere"
      ],
      [
        "check",
        "point"
      ],
      [
        "FL",
        "EE"
      ],
      [
        "me",
        "asure"
      ],
      [
        "pi",
        "led"
      ],
      [
        "experiment",
        "al"
      ],
      [
        "fin",
        "dings"
      ],
      [
        "bench",
        "marks"
      ],
      [
        "Com",
        "piled"
      ],
      [
        "iss",
        "ue"
      ],
      [
        "install",
        "er"
      ],
      [
        "comm",
        "un"
      ],
      [
        "AR",
        "D"
      ],
      [
        "cons",
        "ensus"
      ],
      [
        "cont",
        "ent"
      ],
      [
        "vis",
        "ual"
      ],
      [
        "spl",
        "it"
      ],
      [
        "demo",
        "s"
      ],
      [
        "enco",
        "der"
      ],
      [
        "iv",
        "es"
      ],
      [
        "hard",
        "ware"
      ],
      [
        "proof",
        "s"
      ],
      [
        "direct",
        "ed"
      ],
      [
        "pen",
        "rose"
      ],
      [
        "PR",
        "O"
      ],
      [
        "Pro",
        "tocol"
      ],
      [
        "vo",
        "ice"
      ],
      [
        "fl",
        "ag"
      ],
      [
        "sim",
        "ulation"
      ],
      [
        "modu",
        "le"
      ],
      [
        "gra",
        "ph"
      ],
      [
        "trap",
        "s"
      ],
      [
        "GE",
        "T"
      ],
      [
        "af",
        "ter"
      ],
      [
        "net",
        "work"
      ],
      [
        "pr",
        "int"
      ],
      [
        "He",
        "bbian"
      ],
      [
        "set",
        "up"
      ],
      [
        "theore",
        "m"
      ],
      [
        "ever",
        "y"
      ],
      [
        "produ",
        "ction"
      ],
      [
        "actual",
        "ization"
      ],
      [
        "sum",
        "mary"
      ],
      [
        "strate",
        "g"
      ],
      [
        "Spl",
        "ine"
      ],
      [
        "udi",
        "es"
      ],
      [
        "ident",
        "ity"
      ],
      [
        "conscious",
        "ness"
      ],
      [
        "fun",
        "ction"
      ],
      [
        "prom",
        "pt"
      ],
      [
        "referen",
        "ces"
      ],
      [
        "Agen",
        "cy"
      ],
      [
        "FLEE",
        "T"
      ],
      [
        "2",
        "A"
      ],
      [
        "3",
        "3"
      ],
      [
        "6",
        "6"
      ],
      [
        "A",
        "2A"
      ],
      [
        "B",
        "E"
      ],
      [
        "C",
        "y"
      ],
      [
        "C",
        "re"
      ],
      [
        "C",
        "rab"
      ],
      [
        "C",
        "argo"
      ],
      [
        "E",
        "2"
      ],
      [
        "G",
        "U"
      ],
      [
        "I",
        "M"
      ],
      [
        "I",
        "V"
      ],
      [
        "L",
        "7"
      ],
      [
        "P",
        "re"
      ],
      [
        "P",
        "atch"
      ],
      [
        "S",
        "tr"
      ],
      [
        "T",
        "E"
      ],
      [
        "T",
        "ensor"
      ],
      [
        "U",
        "RE"
      ],
      [
        "W",
        "e"
      ],
      [
        "Z",
        "er"
      ],
      [
        "c",
        "a"
      ],
      [
        "c",
        "lo"
      ],
      [
        "c",
        "ase"
      ],
      [
        "c",
        "all"
      ],
      [
        "d",
        "ash"
      ],
      [
        "e",
        "igen"
      ],
      [
        "f",
        "ol"
      ],
      [
        "f",
        "lo"
      ],
      [
        "f",
        "ail"
      ],
      [
        "f",
        "uture"
      ],
      [
        "h",
        "igh"
      ],
      [
        "h",
        "ist"
      ],
      [
        "i",
        "qu"
      ],
      [
        "l",
        "ate"
      ],
      [
        "m",
        "y"
      ],
      [
        "m",
        "ig"
      ],
      [
        "s",
        "he"
      ],
      [
        "s",
        "kip"
      ],
      [
        "s",
        "print"
      ],
      [
        "t",
        "ask"
      ],
      [
        "v",
        "en"
      ],
      [
        "y",
        "pe"
      ],
      [
        "er",
        "net"
      ],
      [
        "en",
        "able"
      ],
      [
        "en",
        "ame"
      ],
      [
        "re",
        "d"
      ],
      [
        "re",
        "act"
      ],
      [
        "om",
        "et"
      ],
      [
        "or",
        "der"
      ],
      [
        "le",
        "ment"
      ],
      [
        "se",
        "curity"
      ],
      [
        "se",
        "diment"
      ],
      [
        "us",
        "er"
      ],
      [
        "fe",
        "ed"
      ],
      [
        "te",
        "mp"
      ],
      [
        "et",
        "er"
      ],
      [
        "con",
        "cept"
      ],
      [
        "the",
        "s"
      ],
      [
        "ag",
        "ency"
      ],
      [
        "ag",
        "orean"
      ],
      [
        "mo",
        "de"
      ],
      [
        "pro",
        "p"
      ],
      [
        "pro",
        "to"
      ],
      [
        "pro",
        "gre"
      ],
      [
        "th",
        "resh"
      ],
      [
        "ex",
        "p"
      ],
      [
        "ex",
        "port"
      ],
      [
        "ex",
        "ec"
      ],
      [
        "co",
        "py"
      ],
      [
        "co",
        "des"
      ],
      [
        "ub",
        "ernet"
      ],
      [
        "li",
        "b"
      ],
      [
        "ul",
        "um"
      ],
      [
        "build",
        "s"
      ],
      [
        "ter",
        "min"
      ],
      [
        "pre",
        "ttier"
      ],
      [
        "ph",
        "i"
      ],
      [
        "und",
        "er"
      ],
      [
        "syn",
        "ergy"
      ],
      [
        "ma",
        "in"
      ],
      [
        "In",
        "te"
      ],
      [
        "op",
        "codes"
      ],
      [
        "por",
        "ts"
      ],
      [
        "cr",
        "ush"
      ],
      [
        "check",
        "ing"
      ],
      [
        "tt",
        "ing"
      ],
      [
        "log",
        "s"
      ],
      [
        "spe",
        "ed"
      ],
      [
        "pack",
        "ages"
      ],
      [
        "ker",
        "nel"
      ],
      [
        "we",
        "ight"
      ],
      [
        "HE",
        "ART"
      ],
      [
        "ON",
        "E"
      ],
      [
        "ty",
        "po"
      ],
      [
        "fer",
        "ent"
      ],
      [
        "br",
        "and"
      ],
      [
        "val",
        "ue"
      ],
      [
        "iss",
        "ues"
      ],
      [
        "IN",
        "G"
      ],
      [
        "cont",
        "ribut"
      ],
      [
        "gro",
        "q"
      ],
      [
        "IS",
        "A"
      ],
      [
        "time",
        "out"
      ],
      [
        "correct",
        "ed"
      ],
      [
        "Pyth",
        "agorean"
      ],
      [
        "ric",
        "ulum"
      ],
      [
        "inter",
        "active"
      ],
      [
        "SS",
        "H"
      ],
      [
        "compre",
        "hensive"
      ],
      [
        "chap",
        "ter"
      ],
      [
        "TL",
        "S"
      ],
      [
        "mur",
        "mur"
      ],
      [
        "su",
        "ite"
      ],
      [
        "phy",
        "s"
      ],
      [
        "mapp",
        "ing"
      ],
      [
        "tar",
        "get"
      ],
      [
        "tur",
        "n"
      ],
      [
        "coordin",
        "ate"
      ],
      [
        "dif",
        "ferent"
      ],
      [
        "UR",
        "L"
      ],
      [
        "pun",
        "k"
      ],
      [
        "proven",
        "ance"
      ],
      [
        "purple",
        "pincher"
      ],
      [
        "Gro",
        "q"
      ],
      [
        "SP",
        "EC"
      ],
      [
        "sa",
        "fe"
      ],
      [
        "mer",
        "maid"
      ],
      [
        "separ",
        "ate"
      ],
      [
        "neg",
        "ative"
      ],
      [
        "metric",
        "s"
      ],
      [
        "Al",
        "low"
      ],
      [
        "Tr",
        "ans"
      ],
      [
        "mach",
        "ine"
      ],
      [
        "Ag",
        "ent"
      ],
      [
        "stand",
        "alone"
      ],
      [
        "align",
        "ment"
      ],
      [
        "paradig",
        "m"
      ],
      [
        "AV",
        "X"
      ],
      [
        "BE",
        "AT"
      ],
      [
        "GU",
        "ARD"
      ],
      [
        "ubernet",
        "es"
      ],
      [
        "HEART",
        "BEAT"
      ],
      [
        "5",
        "3"
      ],
      [
        "9",
        "6"
      ],
      [
        "A",
        "IN"
      ],
      [
        "B",
        "omb"
      ],
      [
        "D",
        "o"
      ],
      [
        "H",
        "ol"
      ],
      [
        "I",
        "mp"
      ],
      [
        "M",
        "et"
      ],
      [
        "N",
        "A"
      ],
      [
        "N",
        "O"
      ],
      [
        "N",
        "o"
      ],
      [
        "P",
        "I"
      ],
      [
        "P",
        "in"
      ],
      [
        "S",
        "cript"
      ],
      [
        "S",
        "yn"
      ],
      [
        "T",
        "R"
      ],
      [
        "U",
        "N"
      ],
      [
        "V",
        "ER"
      ],
      [
        "a",
        "w"
      ],
      [
        "c",
        "atalog"
      ],
      [
        "d",
        "on"
      ],
      [
        "d",
        "le"
      ],
      [
        "d",
        "yn"
      ],
      [
        "f",
        "la"
      ],
      [
        "f",
        "old"
      ],
      [
        "h",
        "as"
      ],
      [
        "h",
        "ow"
      ],
      [
        "h",
        "ave"
      ],
      [
        "i",
        "ed"
      ],
      [
        "k",
        "ubernetes"
      ],
      [
        "m",
        "ise"
      ],
      [
        "m",
        "icro"
      ],
      [
        "o",
        "le"
      ],
      [
        "o",
        "id"
      ],
      [
        "o",
        "phy"
      ],
      [
        "p",
        "rese"
      ],
      [
        "r",
        "c"
      ],
      [
        "s",
        "on"
      ],
      [
        "s",
        "pa"
      ],
      [
        "s",
        "ide"
      ],
      [
        "s",
        "pans"
      ],
      [
        "s",
        "park"
      ],
      [
        "s",
        "pread"
      ],
      [
        "t",
        "ru"
      ],
      [
        "u",
        "g"
      ],
      [
        "u",
        "ch"
      ],
      [
        "v",
        "5"
      ],
      [
        "w",
        "er"
      ],
      [
        "at",
        "ing"
      ],
      [
        "in",
        "d"
      ],
      [
        "in",
        "ess"
      ],
      [
        "in",
        "fra"
      ],
      [
        "in",
        "vent"
      ],
      [
        "on",
        "g"
      ],
      [
        "st",
        "ri"
      ],
      [
        "st",
        "ale"
      ],
      [
        "an",
        "e"
      ],
      [
        "an",
        "y"
      ],
      [
        "ar",
        "ial"
      ],
      [
        "de",
        "let"
      ],
      [
        "se",
        "cre"
      ],
      [
        "fi",
        "cation"
      ],
      [
        "ri",
        "gh"
      ],
      [
        "stat",
        "s"
      ],
      [
        "fe",
        "cycle"
      ],
      [
        "te",
        "ch"
      ],
      [
        "con",
        "stru"
      ],
      [
        "il",
        "t"
      ],
      [
        "il",
        "ing"
      ],
      [
        "il",
        "os"
      ],
      [
        "as",
        "sert"
      ],
      [
        "bu",
        "ilt"
      ],
      [
        "im",
        "pl"
      ],
      [
        "am",
        "punk"
      ],
      [
        "per",
        "spect"
      ],
      [
        "test",
        "ing"
      ],
      [
        "ci",
        "ent"
      ],
      [
        "di",
        "re"
      ],
      [
        "pt",
        "y"
      ],
      [
        "work",
        "ing"
      ],
      [
        "agent",
        "ic"
      ],
      [
        "ne",
        "ed"
      ],
      [
        "ne",
        "ural"
      ],
      [
        "sh",
        "are"
      ],
      [
        "igh",
        "ts"
      ],
      [
        "age",
        "ment"
      ],
      [
        "ph",
        "ilos"
      ],
      [
        "sandbox",
        "es"
      ],
      [
        "end",
        "ing"
      ],
      [
        "syn",
        "thes"
      ],
      [
        "qu",
        "ality"
      ],
      [
        "constraint",
        "s"
      ],
      [
        "In",
        "t"
      ],
      [
        "lu",
        "cid"
      ],
      [
        "remo",
        "te"
      ],
      [
        "cre",
        "te"
      ],
      [
        "use",
        "d"
      ],
      [
        "tr",
        "on"
      ],
      [
        "dis",
        "covery"
      ],
      [
        "log",
        "ic"
      ],
      [
        "Re",
        "ad"
      ],
      [
        "vers",
        "arial"
      ],
      [
        "stru",
        "ct"
      ],
      [
        "AR",
        "CH"
      ],
      [
        "ode",
        "ck"
      ],
      [
        "vis",
        "ion"
      ],
      [
        "load",
        "s"
      ],
      [
        "ib",
        "ility"
      ],
      [
        "head",
        "er"
      ],
      [
        "inter",
        "pre"
      ],
      [
        "EN",
        "S"
      ],
      [
        "tern",
        "al"
      ],
      [
        "ir",
        "ror"
      ],
      [
        "play",
        "ground"
      ],
      [
        "IC",
        "AL"
      ],
      [
        "LL",
        "M"
      ],
      [
        "sem",
        "b"
      ],
      [
        "theore",
        "ms"
      ],
      [
        "gap",
        "s"
      ],
      [
        "pass",
        "ing"
      ],
      [
        "implement",
        "ation"
      ],
      [
        "FI",
        "R"
      ],
      [
        "hy",
        "po"
      ],
      [
        "Th",
        "ree"
      ],
      [
        "compat",
        "ible"
      ],
      [
        "param",
        "eter"
      ],
      [
        "Bo",
        "otstrap"
      ],
      [
        "bre",
        "a"
      ],
      [
        "crit",
        "ical"
      ],
      [
        "Py",
        "PI"
      ],
      [
        "abo",
        "ut"
      ],
      [
        "clu",
        "de"
      ],
      [
        "quick",
        "start"
      ],
      [
        "public",
        "ation"
      ],
      [
        "Ap",
        "ache"
      ],
      [
        "Ma",
        "ke"
      ],
      [
        "sw",
        "itch"
      ],
      [
        "stor",
        "ies"
      ],
      [
        "mathemat",
        "ical"
      ],
      [
        "metho",
        "d"
      ],
      [
        "require",
        "ment"
      ],
      [
        "artifact",
        "s"
      ],
      [
        "inci",
        "ple"
      ],
      [
        "abstra",
        "ction"
      ],
      [
        "paralle",
        "l"
      ],
      [
        "Str",
        "ing"
      ],
      [
        "hist",
        "ory"
      ],
      [
        "late",
        "st"
      ],
      [
        "thresh",
        "old"
      ],
      [
        "Imp",
        "lement"
      ],
      [
        "dyn",
        "am"
      ],
      [
        "prese",
        "ts"
      ],
      [
        "share",
        "d"
      ],
      [
        "philos",
        "ophy"
      ],
      [
        ")",
        "."
      ],
      [
        "1",
        "12"
      ],
      [
        "4",
        "1"
      ],
      [
        "5",
        "9"
      ],
      [
        "7",
        "0"
      ],
      [
        "A",
        "M"
      ],
      [
        "A",
        "u"
      ],
      [
        "C",
        "R"
      ],
      [
        "C",
        "Y"
      ],
      [
        "C",
        "ur"
      ],
      [
        "D",
        "i"
      ],
      [
        "E",
        "S"
      ],
      [
        "G",
        "H"
      ],
      [
        "H",
        "er"
      ],
      [
        "I",
        "R"
      ],
      [
        "K",
        "S"
      ],
      [
        "M",
        "on"
      ],
      [
        "P",
        "0"
      ],
      [
        "P",
        "O"
      ],
      [
        "Q",
        "U"
      ],
      [
        "R",
        "es"
      ],
      [
        "S",
        "nap"
      ],
      [
        "T",
        "ra"
      ],
      [
        "T",
        "ER"
      ],
      [
        "T",
        "ext"
      ],
      [
        "W",
        "AS"
      ],
      [
        "a",
        "ster"
      ],
      [
        "b",
        "ad"
      ],
      [
        "b",
        "locks"
      ],
      [
        "c",
        "et"
      ],
      [
        "c",
        "as"
      ],
      [
        "e",
        "qu"
      ],
      [
        "f",
        "o"
      ],
      [
        "f",
        "all"
      ],
      [
        "g",
        "n"
      ],
      [
        "g",
        "pu"
      ],
      [
        "l",
        "int"
      ],
      [
        "l",
        "ab"
      ],
      [
        "m",
        "ut"
      ],
      [
        "o",
        "k"
      ],
      [
        "o",
        "per"
      ],
      [
        "p",
        "ages"
      ],
      [
        "p",
        "itch"
      ],
      [
        "s",
        "pi"
      ],
      [
        "s",
        "ame"
      ],
      [
        "s",
        "kill"
      ],
      [
        "t",
        "ain"
      ],
      [
        "v",
        "9"
      ],
      [
        "w",
        "n"
      ],
      [
        "w",
        "ire"
      ],
      [
        "w",
        "rap"
      ],
      [
        "y",
        "s"
      ],
      [
        "in",
        "ed"
      ],
      [
        "in",
        "dependent"
      ],
      [
        "er",
        "y"
      ],
      [
        "en",
        "a"
      ],
      [
        "en",
        "for"
      ],
      [
        "st",
        "ory"
      ],
      [
        "st",
        "udy"
      ],
      [
        "st",
        "udies"
      ],
      [
        "re",
        "l"
      ],
      [
        "re",
        "lay"
      ],
      [
        "ch",
        "o"
      ],
      [
        "ch",
        "art"
      ],
      [
        "or",
        "i"
      ],
      [
        "le",
        "an"
      ],
      [
        "ar",
        "is"
      ],
      [
        "ar",
        "gu"
      ],
      [
        "to",
        "p"
      ],
      [
        "to",
        "ken"
      ],
      [
        "se",
        "d"
      ],
      [
        "ri",
        "x"
      ],
      [
        "ri",
        "es"
      ],
      [
        "ed",
        "ge"
      ],
      [
        "oc",
        "e"
      ],
      [
        "ad",
        "versarial"
      ],
      [
        "ge",
        "st"
      ],
      [
        "be",
        "h"
      ],
      [
        "ap",
        "ter"
      ],
      [
        "ap",
        "hor"
      ],
      [
        "ic",
        "it"
      ],
      [
        "con",
        "vergence"
      ],
      [
        "il",
        "ot"
      ],
      [
        "as",
        "on"
      ],
      [
        "un",
        "i"
      ],
      [
        "mo",
        "tron"
      ],
      [
        "ex",
        "act"
      ],
      [
        "ex",
        "pose"
      ],
      [
        "ex",
        "ternal"
      ],
      [
        "co",
        "gn"
      ],
      [
        "arch",
        "iv"
      ],
      [
        "am",
        "p"
      ],
      [
        "comp",
        "let"
      ],
      [
        "comp",
        "action"
      ],
      [
        "comp",
        "aris"
      ],
      [
        "li",
        "fecycle"
      ],
      [
        "per",
        "f"
      ],
      [
        "ss",
        "ment"
      ],
      [
        "ore",
        "po"
      ],
      [
        "ll",
        "vm"
      ],
      [
        "rust",
        "fmt"
      ],
      [
        "pre",
        "serve"
      ],
      [
        "py",
        "cache"
      ],
      [
        "ens",
        "ign"
      ],
      [
        "par",
        "ti"
      ],
      [
        "av",
        "oid"
      ],
      [
        "du",
        "ce"
      ],
      [
        "ref",
        "resh"
      ],
      [
        "ref",
        "lection"
      ],
      [
        "cr",
        "y"
      ],
      [
        "col",
        "lective"
      ],
      [
        "el",
        "f"
      ],
      [
        "bri",
        "ef"
      ],
      [
        "dis",
        "cover"
      ],
      [
        "log",
        "o"
      ],
      [
        "17",
        "8"
      ],
      [
        "pi",
        "e"
      ],
      [
        "pi",
        "p"
      ],
      [
        "we",
        "en"
      ],
      [
        "sub",
        "agents"
      ],
      [
        "met",
        "ic"
      ],
      [
        "met",
        "aphor"
      ],
      [
        "app",
        "ing"
      ],
      [
        "session",
        "s"
      ],
      [
        "engine",
        "er"
      ],
      [
        "IN",
        "DE"
      ],
      [
        "ode",
        "cet"
      ],
      [
        "Con",
        "straint"
      ],
      [
        "bin",
        "ary"
      ],
      [
        "chan",
        "ge"
      ],
      [
        "chan",
        "nel"
      ],
      [
        "cur",
        "riculum"
      ],
      [
        "flux",
        "_"
      ],
      [
        "ac",
        "es"
      ],
      [
        "sc",
        "af"
      ],
      [
        "start",
        "up"
      ],
      [
        "lay",
        "ers"
      ],
      [
        "CL",
        "E"
      ],
      [
        "IT",
        "ECT"
      ],
      [
        "gener",
        "ated"
      ],
      [
        "writ",
        "ing"
      ],
      [
        "vo",
        "uch"
      ],
      [
        "sim",
        "ul"
      ],
      [
        "our",
        "ce"
      ],
      [
        "med",
        "i"
      ],
      [
        "mon",
        "itor"
      ],
      [
        "mon",
        "orepo"
      ],
      [
        "ins",
        "ight"
      ],
      [
        "ins",
        "ights"
      ],
      [
        "pers",
        "on"
      ],
      [
        "hol",
        "odeck"
      ],
      [
        "project",
        "s"
      ],
      [
        "provid",
        "er"
      ],
      [
        "CH",
        "ART"
      ],
      [
        "implement",
        "ations"
      ],
      [
        "match",
        "ing"
      ],
      [
        "mapp",
        "ed"
      ],
      [
        "dif",
        "f"
      ],
      [
        "En",
        "gine"
      ],
      [
        "comput",
        "ation"
      ],
      [
        "Po",
        "dman"
      ],
      [
        "ora",
        "cle1"
      ],
      [
        "embed",
        "ded"
      ],
      [
        "object",
        "s"
      ],
      [
        "dim",
        "ension"
      ],
      [
        "sing",
        "le"
      ],
      [
        "logg",
        "ed"
      ],
      [
        "Ne",
        "motron"
      ],
      [
        "mid",
        "dle"
      ],
      [
        "so",
        "lete"
      ],
      [
        "persist",
        "ence"
      ],
      [
        "RF",
        "C"
      ],
      [
        "dra",
        "ft"
      ],
      [
        "mix",
        "ed"
      ],
      [
        "navig",
        "ation"
      ],
      [
        "asse",
        "ssment"
      ],
      [
        "regist",
        "ry"
      ],
      [
        "DS",
        "L"
      ],
      [
        "dro",
        "p"
      ],
      [
        "fil",
        "ter"
      ],
      [
        "measure",
        "ment"
      ],
      [
        "Cy",
        "cle"
      ],
      [
        "E2",
        "E"
      ],
      [
        "feed",
        "back"
      ],
      [
        "progre",
        "ss"
      ],
      [
        "exp",
        "and"
      ],
      [
        "Inte",
        "g"
      ],
      [
        "Pythagorean",
        "48"
      ],
      [
        "Hol",
        "onomy"
      ],
      [
        "tru",
        "th"
      ],
      [
        "invent",
        "ory"
      ],
      [
        "tech",
        "n"
      ],
      [
        "dire",
        "ction"
      ],
      [
        "ARCH",
        "ITECT"
      ],
      [
        "semb",
        "ly"
      ],
      [
        "CY",
        "CLE"
      ],
      [
        "WAS",
        "M"
      ],
      [
        "bad",
        "ge"
      ],
      [
        "cas",
        "ca"
      ],
      [
        "archiv",
        "ed"
      ],
      [
        "comparis",
        "on"
      ],
      [
        "INDE",
        "X"
      ],
      [
        "CHART",
        "ER"
      ],
      [
        "middle",
        "ware"
      ],
      [
        "ARCHITECT",
        "URE"
      ],
      [
        "1",
        "15"
      ],
      [
        "4",
        "05"
      ],
      [
        "5",
        "6"
      ],
      [
        "9",
        "0"
      ],
      [
        "9",
        "8"
      ],
      [
        "A",
        "B"
      ],
      [
        "A",
        "G"
      ],
      [
        "A",
        "n"
      ],
      [
        "B",
        "lock"
      ],
      [
        "C",
        "A"
      ],
      [
        "C",
        "or"
      ],
      [
        "C",
        "erti"
      ],
      [
        "C",
        "atalog"
      ],
      [
        "C",
        "lean"
      ],
      [
        "D",
        "ONE"
      ],
      [
        "E",
        "P"
      ],
      [
        "G",
        "al"
      ],
      [
        "H",
        "C"
      ],
      [
        "H",
        "ex"
      ],
      [
        "I",
        "ST"
      ],
      [
        "K",
        "E"
      ],
      [
        "L",
        "O"
      ],
      [
        "L",
        "ab"
      ],
      [
        "M",
        "in"
      ],
      [
        "M",
        "emory"
      ],
      [
        "M",
        "AN"
      ],
      [
        "O",
        "r"
      ],
      [
        "O",
        "SS"
      ],
      [
        "P",
        "l"
      ],
      [
        "P",
        "r"
      ],
      [
        "R",
        "P"
      ],
      [
        "R",
        "aw"
      ],
      [
        "S",
        "O"
      ],
      [
        "S",
        "EC"
      ],
      [
        "S",
        "IM"
      ],
      [
        "S",
        "elf"
      ],
      [
        "T",
        "ier"
      ],
      [
        "T",
        "ype"
      ],
      [
        "W",
        "heel"
      ],
      [
        "Z",
        "HC"
      ],
      [
        "_",
        "_"
      ],
      [
        "_",
        "bridge"
      ],
      [
        "a",
        "vi"
      ],
      [
        "a",
        "ware"
      ],
      [
        "b",
        "ig"
      ],
      [
[...]
