{
  "version": "1.0",
  "truncation": null,
  "padding": null,
  "added_tokens": [
    {
      "id": 0,
      "content": "[PAD]",
      "single_word": false,
      "lstrip": false,
      "rstrip": false,
      "normalized": false,
      "special": true
    },
    {
      "id": 1,
      "content": "[UNK]",
      "single_word": false,
      "lstrip": false,
      "rstrip": false,
      "normalized": false,
      "special": true
    }
  ],
  "normalizer": null,
  "pre_tokenizer": {
    "type": "Whitespace"
  },
  "post_processor": null,
  "decoder": null,
  "model": {
    "type": "BPE",
    "dropout": null,
    "unk_token": "[UNK]",
    "continuing_subword_prefix": null,
    "end_of_word_suffix": null,
    "fuse_unk": false,
    "byte_fallback": false,
    "ignore_merges": false,
    "vocab": {
      "[PAD]": 0,
      "[UNK]": 1,
      "!": 2,
      "\"": 3,
      "#": 4,
      "$": 5,
      "%": 6,
      "&": 7,
      "'": 8,
      "(": 9,
      ")": 10,
      "*": 11,
      "+": 12,
      ",": 13,
      "-": 14,
      ".": 15,
      "/": 16,
      "0": 17,
      "1": 18,
      "2": 19,
      "3": 20,
      "4": 21,
      "5": 22,
      "6": 23,
      "7": 24,
      "8": 25,
      "9": 26,
      ":": 27,
      ";": 28,
      "<": 29,
      "=": 30,
      ">": 31,
      "?": 32,
      "@": 33,
      "A": 34,
      "B": 35,
      "C": 36,
      "D": 37,
      "E": 38,
      "F": 39,
      "G": 40,
      "H": 41,
      "I": 42,
      "J": 43,
      "K": 44,
      "L": 45,
      "M": 46,
      "N": 47,
      "O": 48,
      "P": 49,
      "Q": 50,
      "R": 51,
      "S": 52,
      "T": 53,
      "U": 54,
      "V": 55,
      "W": 56,
      "X": 57,
      "Y": 58,
      "Z": 59,
      "[": 60,
      "]": 61,
      "^": 62,
      "_": 63,
      "`": 64,
      "a": 65,
      "b": 66,
      "c": 67,
      "d": 68,
      "e": 69,
      "f": 70,
      "g": 71,
      "h": 72,
      "i": 73,
      "j": 74,
      "k": 75,
      "l": 76,
      "m": 77,
      "n": 78,
      "o": 79,
      "p": 80,
      "q": 81,
      "r": 82,
      "s": 83,
      "t": 84,
      "u": 85,
      "v": 86,
      "w": 87,
      "x": 88,
      "y": 89,
      "z": 90,
      "{": 91,
      "}": 92,
      "~": 93,
      "§": 94,
      "±": 95,
      "²": 96,
      "·": 97,
      "¹": 98,
      "×": 99,
      "á": 100,
      "é": 101,
      "ö": 102,
      "ā": 103,
      "α": 104,
      "β": 105,
      "γ": 106,
      "ε": 107,
      "ζ": 108,
      "λ": 109,
      "ρ": 110,
      "τ": 111,
      "φ": 112,
      "–": 113,
      "—": 114,
      "⁰": 115,
      "₁": 116,
      "₂": 117,
      "₅": 118,
      "→": 119,
      "↔": 120,
      "∝": 121,
      "∞": 122,
      "≈": 123,
      "≠": 124,
      "≥": 125,
      "✓": 126,
      "️": 127,
      "🌀": 128,
      "🌊": 129,
      "🌐": 130,
      "🌱": 131,
      "🌿": 132,
      "🎨": 133,
      "🏛": 134,
      "🏢": 135,
      "🐚": 136,
      "💌": 137,
      "📄": 138,
      "📊": 139,
      "📋": 140,
      "📚": 141,
      "📝": 142,
      "📡": 143,
      "🔒": 144,
      "🔥": 145,
      "🔧": 146,
      "🔬": 147,
      "🔭": 148,
      "🦀": 149,
      "🧠": 150,
      "🧹": 151,
      "at": 152,
      "in": 153,
      "er": 154,
      "en": 155,
      "on": 156,
      "st": 157,
      "re": 158,
      "om": 159,
      "it": 160,
      "ch": 161,
      "or": 162,
      "le": 163,
      "an": 164,
      "ion": 165,
      "com": 166,
      "al": 167,
      "ar": 168,
      "to": 169,
      "ent": 170,
      "de": 171,
      "se": 172,
      "ro": 173,
      "he": 174,
      "ct": 175,
      "fi": 176,
      "ing": 177,
      "us": 178,
      "(#": 179,
      "au": 180,
      "es": 181,
      "ri": 182,
      "ation": 183,
      "stat": 184,
      "ed": 185,
      "oc": 186,
      "ad": 187,
      "status": 188,
      "ge": 189,
      "be": 190,
      "ment": 191,
      "ra": 192,
      "is": 193,
      "):": 194,
      "fe": 195,
      "te": 196,
      "mit": 197,
      "and": 198,
      "feat": 199,
      "et": 200,
      "ate": 201,
      "ach": 202,
      "fix": 203,
      "ap": 204,
      "ic": 205,
      "ve": 206,
      "auto": 207,
      "for": 208,
      "commit": 209,
      "up": 210,
      "ol": 211,
      "doc": 212,
      "comb": 213,
      "beach": 214,
      "beachcomb": 215,
      "con": 216,
      "ce": 217,
      "il": 218,
      "as": 219,
      "the": 220,
      "ig": 221,
      "un": 222,
      "ag": 223,
      "lo": 224,
      "mo": 225,
      "ver": 226,
      "bu": 227,
      "pro": 228,
      "leet": 229,
      "th": 230,
      "ex": 231,
      "docs": 232,
      "add": 233,
      "im": 234,
      "co": 235,
      "ck": 236,
      "po": 237,
      "rich": 238,
      "enrich": 239,
      "enrichment": 240,
      "pl": 241,
      "arch": 242,
      "fleet": 243,
      "bo": 244,
      "wor": 245,
      "ction": 246,
      "int": 247,
      "no": 248,
      "ut": 249,
      "AT": 250,
      "am": 251,
      "ru": 252,
      "ith": 253,
      "10": 254,
      "comp": 255,
      "ub": 256,
      "li": 257,
      "rom": 258,
      "ul": 259,
      "em": 260,
      "ur": 261,
      "per": 262,
      "upd": 263,
      "ure": 264,
      "ite": 265,
      "test": 266,
      "RE": 267,
      "from": 268,
      "ci": 269,
      "PL": 270,
      "di": 271,
      "ss": 272,
      "ser": 273,
      "15": 274,
      "pa": 275,
      "ine": 276,
      "12": 277,
      "ATO": 278,
      "ore": 279,
      "sy": 280,
      "with": 281,
      "PLATO": 282,
      "Ad": 283,
      "ti": 284,
      "pt": 285,
      "erge": 286,
      "ase": 287,
      "work": 288,
      "ay": 289,
      "stra": 290,
      "ME": 291,
      "id": 292,
      "ers": 293,
      "ild": 294,
      "AD": 295,
      "all": 296,
      "rese": 297,
      "les": 298,
      "dep": 299,
      "Add": 300,
      "ive": 301,
      "tom": 302,
      "ory": 303,
      "agent": 304,
      "build": 305,
      "ne": 306,
      "READ": 307,
      "README": 308,
      "research": 309,
      "sh": 310,
      "update": 311,
      "ll": 312,
      "art": 313,
      "ab": 314,
      "13": 315,
      "of": 316,
      "pe": 317,
      "rust": 318,
      "autom": 319,
      "igh": 320,
      "20": 321,
      "54": 322,
      "cle": 323,
      "ity": 324,
      "24": 325,
      "ep": 326,
      "tra": 327,
      "automerge": 328,
      "45": 329,
      "ence": 330,
      "ess": 331,
      "ter": 332,
      "act": 333,
      "iz": 334,
      "box": 335,
      "mar": 336,
      "pap": 337,
      "age": 338,
      "pre": 339,
      "cture": 340,
      "mp": 341,
      "sand": 342,
      "ath": 343,
      "del": 344,
      "room": 345,
      "ke": 346,
      "ph": 347,
      "ts": 348,
      "sandbox": 349,
      "py": 350,
      "end": 351,
      "und": 352,
      "05": 353,
      "ifi": 354,
      "res": 355,
      "syn": 356,
      "ma": 357,
      "la": 358,
      "low": 359,
      "straint": 360,
      "lin": 361,
      "qu": 362,
      "ens": 363,
      "ated": 364,
      "11": 365,
      "sis": 366,
      "wr": 367,
      "constraint": 368,
      "ks": 369,
      "inst": 370,
      "pol": 371,
      "vi": 372,
      "ance": 373,
      "cri": 374,
      "ard": 375,
      "In": 376,
      "lu": 377,
      "par": 378,
      "remo": 379,
      "deps": 380,
      "cript": 381,
      "ial": 382,
      "op": 383,
      "hell": 384,
      "serv": 385,
      "ight": 386,
      "ain": 387,
      "ot": 388,
      "chore": 389,
      "model": 390,
      "14": 391,
      "cation": 392,
      "dge": 393,
      "che": 394,
      "av": 395,
      "cre": 396,
      "bump": 397,
      "26": 398,
      "du": 399,
      "ref": 400,
      "tests": 401,
      "ple": 402,
      "gu": 403,
      "wh": 404,
      "loc": 405,
      "use": 406,
      "one": 407,
      "pos": 408,
      "por": 409,
      "cr": 410,
      "col": 411,
      "remove": 412,
      "The": 413,
      "el": 414,
      "ration": 415,
      "um": 416,
      "atch": 417,
      "inte": 418,
      "ross": 419,
      "ign": 420,
      "check": 421,
      "00": 422,
      "cli": 423,
      "og": 424,
      "form": 425,
      "able": 426,
      "bri": 427,
      "tr": 428,
      "itecture": 429,
      "FL": 430,
      "dis": 431,
      "tt": 432,
      "exper": 433,
      "gen": 434,
      "gate": 435,
      "ix": 436,
      "rect": 437,
      "ded": 438,
      "03": 439,
      "dit": 440,
      "md": 441,
      "ow": 442,
      "log": 443,
      "17": 444,
      "cy": 445,
      "iment": 446,
      "me": 447,
      "read": 448,
      "architecture": 449,
      "Re": 450,
      "spe": 451,
      "stem": 452,
      "beat": 453,
      "paper": 454,
      "git": 455,
      "js": 456,
      "way": 457,
      "ssion": 458,
      "pack": 459,
      "artbeat": 460,
      "cross": 461,
      "pi": 462,
      "port": 463,
      "experiment": 464,
      "22": 465,
      "ker": 466,
      "we": 467,
      "rab": 468,
      "ctions": 469,
      "ft": 470,
      "plat": 471,
      "system": 472,
      "bridge": 473,
      "ack": 474,
      "ist": 475,
      "sup": 476,
      "sub": 477,
      "ant": 478,
      "2026": 479,
      "write": 480,
      "16": 481,
      "flow": 482,
      "audit": 483,
      "integ": 484,
      "UX": 485,
      "met": 486,
      "run": 487,
      "ans": 488,
      "anal": 489,
      "heartbeat": 490,
      "ages": 491,
      "ocap": 492,
      "ocapn": 493,
      "23": 494,
      "CI": 495,
      "HE": 496,
      "path": 497,
      "shell": 498,
      "v2": 499,
      "des": 500,
      "vers": 501,
      "not": 502,
      "FLUX": 503,
      "are": 504,
      "ding": 505,
      "ly": 506,
      "lease": 507,
      "new": 508,
      "ON": 509,
      "ty": 510,
      "workflow": 511,
      "Ph": 512,
      "Ro": 513,
      "ds": 514,
      "gine": 515,
      "je": 516,
      "ative": 517,
      "sync": 518,
      "law": 519,
      "ai": 520,
      "fin": 521,
      "fer": 522,
      "ument": 523,
      "release": 524,
      "ice": 525,
      "nore": 526,
      "ull": 527,
      "plato": 528,
      "dri": 529,
      "v0": 530,
      "ates": 531,
      "ench": 532,
      "repos": 533,
      "document": 534,
      "ignore": 535,
      "servation": 536,
      "19": 537,
      "AP": 538,
      "br": 539,
      "bench": 540,
      "lic": 541,
      "min": 542,
      "theory": 543,
      "gateway": 544,
      "analy": 545,
      "18": 546,
      "43": 547,
      "Com": 548,
      "St": 549,
      "cor": 550,
      "crab": 551,
      "line": 552,
      "val": 553,
      "lete": 554,
      "app": 555,
      "ization": 556,
      "mark": 557,
      "ified": 558,
      "Fix": 559,
      "Git": 560,
      "Hub": 561,
      "ST": 562,
      "ies": 563,
      "ud": 564,
      "stru": 565,
      "iss": 566,
      "install": 567,
      "analysis": 568,
      "CC": 569,
      "Up": 570,
      "zer": 571,
      "att": 572,
      "rewrite": 573,
      "session": 574,
      "clean": 575,
      "De": 576,
      "engine": 577,
      "comm": 578,
      "tocol": 579,
      "ical": 580,
      "exam": 581,
      "GitHub": 582,
      "Fleet": 583,
      "ho": 584,
      "jav": 585,
      "rate": 586,
      "dev": 587,
      "ass": 588,
      "ame": 589,
      "emory": 590,
      "papers": 591,
      "ification": 592,
      "integration": 593,
      "21": 594,
      "AR": 595,
      "Se": 596,
      "pub": 597,
      "ual": 598,
      "yth": 599,
      "ster": 600,
      "fir": 601,
      "anding": 602,
      "ascript": 603,
      "lock": 604,
      "Upd": 605,
      "javascript": 606,
      "IN": 607,
      "UD": 608,
      "ste": 609,
      "ary": 610,
      "hed": 611,
      "page": 612,
      "gh": 613,
      "cons": 614,
      "prov": 615,
      "pace": 616,
      "resul": 617,
      "AL": 618,
      "cocapn": 619,
      "est": 620,
      "lan": 621,
      "ode": 622,
      "out": 623,
      "tim": 624,
      "ish": 625,
      "cont": 626,
      "thesis": 627,
      "shi": 628,
      "results": 629,
      "fra": 630,
      "v3": 631,
      "vis": 632,
      "ition": 633,
      "ations": 634,
      "iler": 635,
      "load": 636,
      "thro": 637,
      "complete": 638,
      "cle1": 639,
      "ject": 640,
      "Update": 641,
      "Con": 642,
      "THE": 643,
      "dom": 644,
      "memory": 645,
      "code": 646,
      "point": 647,
      "tiles": 648,
      "rooms": 649,
      "lux": 650,
      "ttle": 651,
      "bin": 652,
      "gro": 653,
      "spl": 654,
      "chan": 655,
      "ctor": 656,
      "works": 657,
      "agents": 658,
      "track": 659,
      "gitignore": 660,
      "API": 661,
      "udy": 662,
      "01": 663,
      "02": 664,
      "ER": 665,
      "by": 666,
      "cur": 667,
      "flux": 668,
      "ide": 669,
      "vm": 670,
      "requ": 671,
      "conservation": 672,
      "polic": 673,
      "04": 674,
      "GP": 675,
      "IS": 676,
      "MUD": 677,
      "ac": 678,
      "der": 679,
      "ew": 680,
      "man": 681,
      "opt": 682,
      "sc": 683,
      "demo": 684,
      "deep": 685,
      "rout": 686,
      "state": 687,
      "vel": 688,
      "protocol": 689,
      "sert": 690,
      "langu": 691,
      "time": 692,
      "ace": 693,
      "back": 694,
      "math": 695,
      "xt": 696,
      "start": 697,
      "file": 698,
      "strap": 699,
      "view": 700,
      "otstrap": 701,
      "policy": 702,
      "Ora": 703,
      "lay": 704,
      "enco": 705,
      "text": 706,
      "lines": 707,
      "Phase": 708,
      "domain": 709,
      "CL": 710,
      "FM": 711,
      "iv": 712,
      "mat": 713,
      "enste": 714,
      "real": 715,
      "dex": 716,
      "isenste": 717,
      "server": 718,
      "benchmark": 719,
      "Oracle1": 720,
      "isenstein": 721,
      "06": 722,
      "IT": 723,
      "full": 724,
      "her": 725,
      "ld": 726,
      "map": 727,
      "ples": 728,
      "itial": 729,
      "cover": 730,
      "updated": 731,
      "version": 732,
      "2e": 733,
      "CT": 734,
      "UT": 735,
      "e2e": 736,
      "ms": 737,
      "os": 738,
      "pus": 739,
      "ror": 740,
      "ta": 741,
      "was": 742,
      "ata": 743,
      "ator": 744,
      "tool": 745,
      "hel": 746,
      "ings": 747,
      "words": 748,
      "now": 749,
      "marks": 750,
      "formal": 751,
      "Study": 752,
      "correct": 753,
      "structure": 754,
      "cleanup": 755,
      "examples": 756,
      "publ": 757,
      "first": 758,
      "EE": 759,
      "Pyth": 760,
      "ib": 761,
      "ile": 762,
      "night": 763,
      "ust": 764,
      "index": 765,
      "als": 766,
      "head": 767,
      "forge": 768,
      "ext": 769,
      "post": 770,
      "live": 771,
      "tile": 772,
      "actor": 773,
      "gener": 774,
      "super": 775,
      "ference": 776,
      "),": 777,
      "64": 778,
      "Mo": 779,
      "ale": 780,
      "hard": 781,
      "nap": 782,
      "ob": 783,
      "ry": 784,
      "script": 785,
      "ware": 786,
      "iter": 787,
      "let": 788,
      "ric": 789,
      "edu": 790,
      "old": 791,
      "docker": 792,
      "proof": 793,
      "inter": 794,
      "direct": 795,
      "documentation": 796,
      "GPU": 797,
      "07": 798,
      "08": 799
    },
    "merges": [
      [
        "a",
        "t"
      ],
      [
        "i",
        "n"
      ],
      [
        "e",
        "r"
      ],
      [
        "e",
        "n"
      ],
      [
        "o",
        "n"
      ],
      [
        "s",
        "t"
      ],
      [
        "r",
        "e"
      ],
      [
        "o",
        "m"
      ],
      [
        "i",
        "t"
      ],
      [
        "c",
        "h"
      ],
      [
        "o",
        "r"
      ],
      [
        "l",
        "e"
      ],
      [
        "a",
        "n"
      ],
      [
        "i",
        "on"
      ],
      [
        "c",
        "om"
      ],
      [
        "a",
        "l"
      ],
      [
        "a",
        "r"
      ],
      [
        "t",
        "o"
      ],
      [
        "en",
        "t"
      ],
      [
        "d",
        "e"
      ],
      [
        "s",
        "e"
      ],
      [
        "r",
        "o"
      ],
      [
        "h",
        "e"
      ],
      [
        "c",
        "t"
      ],
      [
        "f",
        "i"
      ],
      [
        "in",
        "g"
      ],
      [
        "u",
        "s"
      ],
      [
        "(",
        "#"
      ],
      [
        "a",
        "u"
      ],
      [
        "e",
        "s"
      ],
      [
        "r",
        "i"
      ],
      [
        "at",
        "ion"
      ],
      [
        "st",
        "at"
      ],
      [
        "e",
        "d"
      ],
      [
        "o",
        "c"
      ],
      [
        "a",
        "d"
      ],
      [
        "stat",
        "us"
      ],
      [
        "g",
        "e"
      ],
      [
        "b",
        "e"
      ],
      [
        "m",
        "ent"
      ],
      [
        "r",
        "a"
      ],
      [
        "i",
        "s"
      ],
      [
        ")",
        ":"
      ],
      [
        "f",
        "e"
      ],
      [
        "t",
        "e"
      ],
      [
        "m",
        "it"
      ],
      [
        "an",
        "d"
      ],
      [
        "fe",
        "at"
      ],
      [
        "e",
        "t"
      ],
      [
        "at",
        "e"
      ],
      [
        "a",
        "ch"
      ],
      [
        "fi",
        "x"
      ],
      [
        "a",
        "p"
      ],
      [
        "i",
        "c"
      ],
      [
        "v",
        "e"
      ],
      [
        "au",
        "to"
      ],
      [
        "f",
        "or"
      ],
      [
        "com",
        "mit"
      ],
      [
        "u",
        "p"
      ],
      [
        "o",
        "l"
      ],
      [
        "d",
        "oc"
      ],
      [
        "com",
        "b"
      ],
      [
        "be",
        "ach"
      ],
      [
        "beach",
        "comb"
      ],
      [
        "c",
        "on"
      ],
      [
        "c",
        "e"
      ],
      [
        "i",
        "l"
      ],
      [
        "a",
        "s"
      ],
      [
        "t",
        "he"
      ],
      [
        "i",
        "g"
      ],
      [
        "u",
        "n"
      ],
      [
        "a",
        "g"
      ],
      [
        "l",
        "o"
      ],
      [
        "m",
        "o"
      ],
      [
        "v",
        "er"
      ],
      [
        "b",
        "u"
      ],
      [
        "p",
        "ro"
      ],
      [
        "le",
        "et"
      ],
      [
        "t",
        "h"
      ],
      [
        "e",
        "x"
      ],
      [
        "doc",
        "s"
      ],
      [
        "ad",
        "d"
      ],
      [
        "i",
        "m"
      ],
      [
        "c",
        "o"
      ],
      [
        "c",
        "k"
      ],
      [
        "p",
        "o"
      ],
      [
        "ri",
        "ch"
      ],
      [
        "en",
        "rich"
      ],
      [
        "enrich",
        "ment"
      ],
      [
        "p",
        "l"
      ],
      [
        "ar",
        "ch"
      ],
      [
        "f",
        "leet"
      ],
      [
        "b",
        "o"
      ],
      [
        "w",
        "or"
      ],
      [
        "ct",
        "ion"
      ],
      [
        "in",
        "t"
      ],
      [
        "n",
        "o"
      ],
      [
        "u",
        "t"
      ],
      [
        "A",
        "T"
      ],
      [
        "a",
        "m"
      ],
      [
        "r",
        "u"
      ],
      [
        "it",
        "h"
      ],
      [
        "1",
        "0"
      ],
      [
        "com",
        "p"
      ],
      [
        "u",
        "b"
      ],
      [
        "l",
        "i"
      ],
      [
        "r",
        "om"
      ],
      [
        "u",
        "l"
      ],
      [
        "e",
        "m"
      ],
      [
        "u",
        "r"
      ],
      [
        "p",
        "er"
      ],
      [
        "up",
        "d"
      ],
      [
        "u",
        "re"
      ],
      [
        "it",
        "e"
      ],
      [
        "te",
        "st"
      ],
      [
        "R",
        "E"
      ],
      [
        "f",
        "rom"
      ],
      [
        "c",
        "i"
      ],
      [
        "P",
        "L"
      ],
      [
        "d",
        "i"
      ],
      [
        "s",
        "s"
      ],
      [
        "s",
        "er"
      ],
      [
        "1",
        "5"
      ],
      [
        "p",
        "a"
      ],
      [
        "in",
        "e"
      ],
      [
        "1",
        "2"
      ],
      [
        "AT",
        "O"
      ],
      [
        "o",
        "re"
      ],
      [
        "s",
        "y"
      ],
      [
        "w",
        "ith"
      ],
      [
        "PL",
        "ATO"
      ],
      [
        "A",
        "d"
      ],
      [
        "t",
        "i"
      ],
      [
        "p",
        "t"
      ],
      [
        "er",
        "ge"
      ],
      [
        "a",
        "se"
      ],
      [
        "wor",
        "k"
      ],
      [
        "a",
        "y"
      ],
      [
        "st",
        "ra"
      ],
      [
        "M",
        "E"
      ],
      [
        "i",
        "d"
      ],
      [
        "er",
        "s"
      ],
      [
        "il",
        "d"
      ],
      [
        "A",
        "D"
      ],
      [
        "al",
        "l"
      ],
      [
        "re",
        "se"
      ],
      [
        "le",
        "s"
      ],
      [
        "de",
        "p"
      ],
      [
        "Ad",
        "d"
      ],
      [
        "i",
        "ve"
      ],
      [
        "t",
        "om"
      ],
      [
        "or",
        "y"
      ],
      [
        "ag",
        "ent"
      ],
      [
        "bu",
        "ild"
      ],
      [
        "n",
        "e"
      ],
      [
        "RE",
        "AD"
      ],
      [
        "READ",
        "ME"
      ],
      [
        "rese",
        "arch"
      ],
      [
        "s",
        "h"
      ],
      [
        "upd",
        "ate"
      ],
      [
        "l",
        "l"
      ],
      [
        "ar",
        "t"
      ],
      [
        "a",
        "b"
      ],
      [
        "1",
        "3"
      ],
      [
        "o",
        "f"
      ],
      [
        "p",
        "e"
      ],
      [
        "ru",
        "st"
      ],
      [
        "au",
        "tom"
      ],
      [
        "ig",
        "h"
      ],
      [
        "2",
        "0"
      ],
      [
        "5",
        "4"
      ],
      [
        "c",
        "le"
      ],
      [
        "it",
        "y"
      ],
      [
        "2",
        "4"
      ],
      [
        "e",
        "p"
      ],
      [
        "t",
        "ra"
      ],
      [
        "autom",
        "erge"
      ],
      [
        "4",
        "5"
      ],
      [
        "en",
        "ce"
      ],
      [
        "es",
        "s"
      ],
      [
        "t",
        "er"
      ],
      [
        "a",
        "ct"
      ],
      [
        "i",
        "z"
      ],
      [
        "bo",
        "x"
      ],
      [
        "m",
        "ar"
      ],
      [
        "p",
        "ap"
      ],
      [
        "a",
        "ge"
      ],
      [
        "p",
        "re"
      ],
      [
        "ct",
        "ure"
      ],
      [
        "m",
        "p"
      ],
      [
        "s",
        "and"
      ],
      [
        "at",
        "h"
      ],
      [
        "de",
        "l"
      ],
      [
        "ro",
        "om"
      ],
      [
        "k",
        "e"
      ],
      [
        "p",
        "h"
      ],
      [
        "t",
        "s"
      ],
      [
        "sand",
        "box"
      ],
      [
        "p",
        "y"
      ],
      [
        "en",
        "d"
      ],
      [
        "un",
        "d"
      ],
      [
        "0",
        "5"
      ],
      [
        "i",
        "fi"
      ],
      [
        "re",
        "s"
      ],
      [
        "sy",
        "n"
      ],
      [
        "m",
        "a"
      ],
      [
        "l",
        "a"
      ],
      [
        "lo",
        "w"
      ],
      [
        "stra",
        "int"
      ],
      [
        "l",
        "in"
      ],
      [
        "q",
        "u"
      ],
      [
        "en",
        "s"
      ],
      [
        "at",
        "ed"
      ],
      [
        "1",
        "1"
      ],
      [
        "s",
        "is"
      ],
      [
        "w",
        "r"
      ],
      [
        "con",
        "straint"
      ],
      [
        "k",
        "s"
      ],
      [
        "in",
        "st"
      ],
      [
        "p",
        "ol"
      ],
      [
        "v",
        "i"
      ],
      [
        "an",
        "ce"
      ],
      [
        "c",
        "ri"
      ],
      [
        "ar",
        "d"
      ],
      [
        "I",
        "n"
      ],
      [
        "l",
        "u"
      ],
      [
        "p",
        "ar"
      ],
      [
        "re",
        "mo"
      ],
      [
        "dep",
        "s"
      ],
      [
        "cri",
        "pt"
      ],
      [
        "i",
        "al"
      ],
      [
        "o",
        "p"
      ],
      [
        "he",
        "ll"
      ],
      [
        "ser",
        "v"
      ],
      [
        "igh",
        "t"
      ],
      [
        "a",
        "in"
      ],
      [
        "o",
        "t"
      ],
      [
        "ch",
        "ore"
      ],
      [
        "mo",
        "del"
      ],
      [
        "1",
        "4"
      ],
      [
        "c",
        "ation"
      ],
      [
        "d",
        "ge"
      ],
      [
        "ch",
        "e"
      ],
      [
        "a",
        "v"
      ],
      [
        "c",
        "re"
      ],
      [
        "bu",
        "mp"
      ],
      [
        "2",
        "6"
      ],
      [
        "d",
        "u"
      ],
      [
        "re",
        "f"
      ],
      [
        "test",
        "s"
      ],
      [
        "p",
        "le"
      ],
      [
        "g",
        "u"
      ],
      [
        "w",
        "h"
      ],
      [
        "l",
        "oc"
      ],
      [
        "u",
        "se"
      ],
      [
        "on",
        "e"
      ],
      [
        "po",
        "s"
      ],
      [
        "p",
        "or"
      ],
      [
        "c",
        "r"
      ],
      [
        "c",
        "ol"
      ],
      [
        "remo",
        "ve"
      ],
      [
        "T",
        "he"
      ],
      [
        "e",
        "l"
      ],
      [
        "r",
        "ation"
      ],
      [
        "u",
        "m"
      ],
      [
        "at",
        "ch"
      ],
      [
        "in",
        "te"
      ],
      [
        "ro",
        "ss"
      ],
      [
        "ig",
        "n"
      ],
      [
        "che",
        "ck"
      ],
      [
        "0",
        "0"
      ],
      [
        "c",
        "li"
      ],
      [
        "o",
        "g"
      ],
      [
        "for",
        "m"
      ],
      [
        "ab",
        "le"
      ],
      [
        "b",
        "ri"
      ],
      [
        "t",
        "r"
      ],
      [
        "ite",
        "cture"
      ],
      [
        "F",
        "L"
      ],
      [
        "d",
        "is"
      ],
      [
        "t",
        "t"
      ],
      [
        "ex",
        "per"
      ],
      [
        "g",
        "en"
      ],
      [
        "g",
        "ate"
      ],
      [
        "i",
        "x"
      ],
      [
        "re",
        "ct"
      ],
      [
        "de",
        "d"
      ],
      [
        "0",
        "3"
      ],
      [
        "d",
        "it"
      ],
      [
        "m",
        "d"
      ],
      [
        "o",
        "w"
      ],
      [
        "lo",
        "g"
      ],
      [
        "1",
        "7"
      ],
      [
        "c",
        "y"
      ],
      [
        "i",
        "ment"
      ],
      [
        "m",
        "e"
      ],
      [
        "re",
        "ad"
      ],
      [
        "arch",
        "itecture"
      ],
      [
        "R",
        "e"
      ],
      [
        "s",
        "pe"
      ],
      [
        "st",
        "em"
      ],
      [
        "be",
        "at"
      ],
      [
        "pap",
        "er"
      ],
      [
        "g",
        "it"
      ],
      [
        "j",
        "s"
      ],
      [
        "w",
        "ay"
      ],
      [
        "ss",
        "ion"
      ],
      [
        "pa",
        "ck"
      ],
      [
        "art",
        "beat"
      ],
      [
        "c",
        "ross"
      ],
      [
        "p",
        "i"
      ],
      [
        "por",
        "t"
      ],
      [
        "exper",
        "iment"
      ],
      [
        "2",
        "2"
      ],
      [
        "k",
        "er"
      ],
      [
        "w",
        "e"
      ],
      [
        "ra",
        "b"
      ],
      [
        "ction",
        "s"
      ],
      [
        "f",
        "t"
      ],
      [
        "pl",
        "at"
      ],
      [
        "sy",
        "stem"
      ],
      [
        "bri",
        "dge"
      ],
      [
        "a",
        "ck"
      ],
      [
        "i",
        "st"
      ],
      [
        "s",
        "up"
      ],
      [
        "s",
        "ub"
      ],
      [
        "an",
        "t"
      ],
      [
        "20",
        "26"
      ],
      [
        "wr",
        "ite"
      ],
      [
        "1",
        "6"
      ],
      [
        "f",
        "low"
      ],
      [
        "au",
        "dit"
      ],
      [
        "inte",
        "g"
      ],
      [
        "U",
        "X"
      ],
      [
        "m",
        "et"
      ],
      [
        "r",
        "un"
      ],
      [
        "an",
        "s"
      ],
      [
        "an",
        "al"
      ],
      [
        "he",
        "artbeat"
      ],
      [
        "ag",
        "es"
      ],
      [
        "oc",
        "ap"
      ],
      [
        "ocap",
        "n"
      ],
      [
        "2",
        "3"
      ],
      [
        "C",
        "I"
      ],
      [
        "H",
        "E"
      ],
      [
        "p",
        "ath"
      ],
      [
        "s",
        "hell"
      ],
      [
        "v",
        "2"
      ],
      [
        "de",
        "s"
      ],
      [
        "ver",
        "s"
      ],
      [
        "no",
        "t"
      ],
      [
        "FL",
        "UX"
      ],
      [
        "a",
        "re"
      ],
      [
        "d",
        "ing"
      ],
      [
        "l",
        "y"
      ],
      [
        "le",
        "ase"
      ],
      [
        "ne",
        "w"
      ],
      [
        "O",
        "N"
      ],
      [
        "t",
        "y"
      ],
      [
        "work",
        "flow"
      ],
      [
        "P",
        "h"
      ],
      [
        "R",
        "o"
      ],
      [
        "d",
        "s"
      ],
      [
        "g",
        "ine"
      ],
      [
        "j",
        "e"
      ],
      [
        "at",
        "ive"
      ],
      [
        "syn",
        "c"
      ],
      [
        "la",
        "w"
      ],
      [
        "a",
        "i"
      ],
      [
        "f",
        "in"
      ],
      [
        "f",
        "er"
      ],
      [
        "u",
        "ment"
      ],
      [
        "re",
        "lease"
      ],
      [
        "ic",
        "e"
      ],
      [
        "no",
        "re"
      ],
      [
        "ul",
        "l"
      ],
      [
        "plat",
        "o"
      ],
      [
        "d",
        "ri"
      ],
      [
        "v",
        "0"
      ],
      [
        "at",
        "es"
      ],
      [
        "en",
        "ch"
      ],
      [
        "re",
        "pos"
      ],
      [
        "doc",
        "ument"
      ],
      [
        "ig",
        "nore"
      ],
      [
        "serv",
        "ation"
      ],
      [
        "1",
        "9"
      ],
      [
        "A",
        "P"
      ],
      [
        "b",
        "r"
      ],
      [
        "b",
        "ench"
      ],
      [
        "l",
        "ic"
      ],
      [
        "m",
        "in"
      ],
      [
        "the",
        "ory"
      ],
      [
        "gate",
        "way"
      ],
      [
        "anal",
        "y"
      ],
      [
        "1",
        "8"
      ],
      [
        "4",
        "3"
      ],
      [
        "C",
        "om"
      ],
      [
        "S",
        "t"
      ],
      [
        "c",
        "or"
      ],
      [
        "c",
        "rab"
      ],
      [
        "l",
        "ine"
      ],
      [
        "v",
        "al"
      ],
      [
        "le",
        "te"
      ],
      [
        "ap",
        "p"
      ],
      [
        "iz",
        "ation"
      ],
      [
        "mar",
        "k"
      ],
      [
        "ifi",
        "ed"
      ],
      [
        "F",
        "ix"
      ],
      [
        "G",
        "it"
      ],
      [
        "H",
        "ub"
      ],
      [
        "S",
        "T"
      ],
      [
        "i",
        "es"
      ],
      [
        "u",
        "d"
      ],
      [
        "st",
        "ru"
      ],
      [
        "is",
        "s"
      ],
      [
        "inst",
        "all"
      ],
      [
        "analy",
        "sis"
      ],
      [
        "C",
        "C"
      ],
      [
        "U",
        "p"
      ],
      [
        "z",
        "er"
      ],
      [
        "at",
        "t"
      ],
      [
        "re",
        "write"
      ],
      [
        "se",
        "ssion"
      ],
      [
        "cle",
        "an"
      ],
      [
        "D",
        "e"
      ],
      [
        "en",
        "gine"
      ],
      [
        "com",
        "m"
      ],
      [
        "to",
        "col"
      ],
      [
        "ic",
        "al"
      ],
      [
        "ex",
        "am"
      ],
      [
        "Git",
        "Hub"
      ],
      [
        "F",
        "leet"
      ],
      [
        "h",
        "o"
      ],
      [
        "j",
        "av"
      ],
      [
        "r",
        "ate"
      ],
      [
        "de",
        "v"
      ],
      [
        "as",
        "s"
      ],
      [
        "am",
        "e"
      ],
      [
        "em",
        "ory"
      ],
      [
        "pap",
        "ers"
      ],
      [
        "ifi",
        "cation"
      ],
      [
        "integ",
        "ration"
      ],
      [
        "2",
        "1"
      ],
      [
        "A",
        "R"
      ],
      [
        "S",
        "e"
      ],
      [
        "p",
        "ub"
      ],
      [
        "u",
        "al"
      ],
      [
        "y",
        "th"
      ],
      [
        "st",
        "er"
      ],
      [
        "fi",
        "r"
      ],
      [
        "and",
        "ing"
      ],
      [
        "as",
        "cript"
      ],
      [
        "loc",
        "k"
      ],
      [
        "Up",
        "d"
      ],
      [
        "jav",
        "ascript"
      ],
      [
        "I",
        "N"
      ],
      [
        "U",
        "D"
      ],
      [
        "st",
        "e"
      ],
      [
        "ar",
        "y"
      ],
      [
        "he",
        "d"
      ],
      [
        "pa",
        "ge"
      ],
      [
        "g",
        "h"
      ],
      [
        "con",
        "s"
      ],
      [
        "pro",
        "v"
      ],
      [
        "pa",
        "ce"
      ],
      [
        "res",
        "ul"
      ],
      [
        "A",
        "L"
      ],
      [
        "c",
        "ocapn"
      ],
      [
        "e",
        "st"
      ],
      [
        "l",
        "an"
      ],
      [
        "o",
        "de"
      ],
      [
        "o",
        "ut"
      ],
      [
        "t",
        "im"
      ],
      [
        "is",
        "h"
      ],
      [
        "con",
        "t"
      ],
      [
        "the",
        "sis"
      ],
      [
        "sh",
        "i"
      ],
      [
        "resul",
        "ts"
      ],
      [
        "f",
        "ra"
      ],
      [
        "v",
        "3"
      ],
      [
        "v",
        "is"
      ],
      [
        "it",
        "ion"
      ],
      [
        "ation",
        "s"
      ],
      [
        "il",
        "er"
      ],
      [
        "lo",
        "ad"
      ],
      [
        "th",
        "ro"
      ],
      [
        "comp",
        "lete"
      ],
      [
        "cle",
        "1"
      ],
      [
        "je",
        "ct"
      ],
      [
        "Upd",
        "ate"
      ],
      [
        "C",
        "on"
      ],
      [
        "T",
        "HE"
      ],
      [
        "d",
        "om"
      ],
      [
        "m",
        "emory"
      ],
      [
        "co",
        "de"
      ],
      [
        "po",
        "int"
      ],
      [
        "ti",
        "les"
      ],
      [
        "room",
        "s"
      ],
      [
        "lu",
        "x"
      ],
      [
        "tt",
        "le"
      ],
      [
        "b",
        "in"
      ],
      [
        "g",
        "ro"
      ],
      [
        "s",
        "pl"
      ],
      [
        "ch",
        "an"
      ],
      [
        "ct",
        "or"
      ],
      [
        "work",
        "s"
      ],
      [
        "agent",
        "s"
      ],
      [
        "tra",
        "ck"
      ],
      [
        "git",
        "ignore"
      ],
      [
        "AP",
        "I"
      ],
      [
        "ud",
        "y"
      ],
      [
        "0",
        "1"
      ],
      [
        "0",
        "2"
      ],
      [
        "E",
        "R"
      ],
      [
        "b",
        "y"
      ],
      [
        "c",
        "ur"
      ],
      [
        "f",
        "lux"
      ],
      [
        "i",
        "de"
      ],
      [
        "v",
        "m"
      ],
      [
        "re",
        "qu"
      ],
      [
        "con",
        "servation"
      ],
      [
        "pol",
        "ic"
      ],
      [
        "0",
        "4"
      ],
      [
        "G",
        "P"
      ],
      [
        "I",
        "S"
      ],
      [
        "M",
        "UD"
      ],
      [
        "a",
        "c"
      ],
      [
        "d",
        "er"
      ],
      [
        "e",
        "w"
      ],
      [
        "m",
        "an"
      ],
      [
        "o",
        "pt"
      ],
      [
        "s",
        "c"
      ],
      [
        "de",
        "mo"
      ],
      [
        "de",
        "ep"
      ],
      [
        "ro",
        "ut"
      ],
      [
        "stat",
        "e"
      ],
      [
        "ve",
        "l"
      ],
      [
        "pro",
        "tocol"
      ],
      [
        "ser",
        "t"
      ],
      [
        "lan",
        "gu"
      ],
      [
        "tim",
        "e"
      ],
      [
        "a",
        "ce"
      ],
      [
        "b",
        "ack"
      ],
      [
        "m",
        "ath"
      ],
      [
        "x",
        "t"
      ],
      [
        "st",
        "art"
      ],
      [
        "fi",
        "le"
      ],
      [
        "stra",
        "p"
      ],
      [
        "vi",
        "ew"
      ],
      [
        "ot",
        "strap"
      ],
      [
        "polic",
        "y"
      ],
      [
        "O",
        "ra"
      ],
      [
        "l",
        "ay"
      ],
      [
        "en",
        "co"
      ],
      [
        "te",
        "xt"
      ],
      [
        "lin",
        "es"
      ],
      [
        "Ph",
        "ase"
      ],
      [
        "dom",
        "ain"
      ],
      [
        "C",
        "L"
      ],
      [
        "F",
        "M"
      ],
      [
        "i",
        "v"
      ],
      [
        "m",
        "at"
      ],
      [
        "en",
        "ste"
      ],
      [
        "re",
        "al"
      ],
      [
        "de",
        "x"
      ],
      [
        "is",
        "enste"
      ],
      [
        "ser",
        "ver"
      ],
      [
        "bench",
        "mark"
      ],
      [
        "Ora",
        "cle1"
      ],
      [
        "isenste",
        "in"
      ],
      [
        "0",
        "6"
      ],
      [
        "I",
        "T"
      ],
      [
        "f",
        "ull"
      ],
      [
        "h",
        "er"
      ],
      [
        "l",
        "d"
      ],
      [
        "m",
        "ap"
      ],
      [
        "p",
        "les"
      ],
      [
        "it",
        "ial"
      ],
      [
        "co",
        "ver"
      ],
      [
        "upd",
        "ated"
      ],
      [
        "vers",
        "ion"
      ],
      [
        "2",
        "e"
      ],
      [
        "C",
        "T"
      ],
      [
        "U",
        "T"
      ],
      [
        "e",
        "2e"
      ],
      [
        "m",
        "s"
      ],
      [
        "o",
        "s"
      ],
      [
        "p",
        "us"
      ],
      [
        "r",
        "or"
      ],
      [
        "t",
        "a"
      ],
      [
        "w",
        "as"
      ],
      [
        "at",
        "a"
      ],
      [
        "at",
        "or"
      ],
      [
        "to",
        "ol"
      ],
      [
        "he",
        "l"
      ],
      [
        "ing",
        "s"
      ],
      [
        "wor",
        "ds"
      ],
      [
        "no",
        "w"
      ],
      [
        "mar",
        "ks"
      ],
      [
        "form",
        "al"
      ],
      [
        "St",
        "udy"
      ],
      [
        "cor",
        "rect"
      ],
      [
        "stru",
        "cture"
      ],
      [
        "clean",
        "up"
      ],
      [
        "exam",
        "ples"
      ],
      [
        "pub",
        "l"
      ],
      [
        "fir",
        "st"
      ],
      [
        "E",
        "E"
      ],
      [
        "P",
        "yth"
      ],
      [
        "i",
        "b"
      ],
      [
        "i",
        "le"
      ],
      [
        "n",
        "ight"
      ],
      [
        "u",
        "st"
      ],
      [
        "in",
        "dex"
      ],
      [
        "al",
        "s"
      ],
      [
        "he",
        "ad"
      ],
      [
        "for",
        "ge"
      ],
      [
        "ex",
        "t"
      ],
      [
        "po",
        "st"
      ],
      [
        "li",
        "ve"
      ],
      [
        "ti",
        "le"
      ],
      [
        "act",
        "or"
      ],
      [
        "gen",
        "er"
      ],
      [
        "sup",
        "er"
      ],
      [
        "fer",
        "ence"
      ],
      [
        ")",
        ","
      ],
      [
        "6",
        "4"
      ],
      [
        "M",
        "o"
      ],
      [
        "a",
        "le"
      ],
      [
        "h",
        "ard"
      ],
      [
        "n",
        "ap"
      ],
      [
        "o",
        "b"
      ],
      [
        "r",
        "y"
      ],
      [
        "s",
        "cript"
      ],
      [
        "w",
        "are"
      ],
      [
        "it",
        "er"
      ],
      [
        "le",
        "t"
      ],
      [
        "ri",
        "c"
      ],
      [
        "ed",
        "u"
      ],
      [
        "ol",
        "d"
      ],
      [
        "doc",
        "ker"
      ],
      [
        "pro",
        "of"
      ],
      [
        "int",
        "er"
      ],
      [
        "di",
        "rect"
      ],
      [
        "document",
        "ation"
      ],
      [
        "GP",
        "U"
      ],
      [
        "0",
        "7"
      ],
      [
        "0",
        "8"
      ]
    ]
  }
}